{"<pad>":0,"<bos>":1,"<eos>":2,"<unk>":3,"!":4,"\"":5,"#":6,"$":7,"%":8,"&":9,"'":10,"(":11,")":12,"*":13,"+":14,",":15,"-":16,".":17,"/":18,"0":19,"1":20,"2":21,"3":22,"4":23,"5":24,"6":25,"7":26,"8":27,"9":28,":":29,";":30,"<":31,"=":32,">":33,"?":34,"@":35,"A":36,"B":37,"C":38,"D":39,"E":40,"F":41,"G":42,"H":43,"I":44,"J":45,"K":46,"L":47,"M":48,"N":49,"O":50,"P":51,"Q":52,"R":53,"S":54,"T":55,"U":56,"V":57,"W":58,"X":59,"Y":60,"Z":61,"[":62,"\\":63,"]":64,"^":65,"_":66,"`":67,"a":68,"b":69,"c":70,"d":71,"e":72,"f":73,"g":74,"h":75,"i":76,"j":77,"k":78,"l":79,"m":80,"n":81,"o":82,"p":83,"q":84,"r":85,"s":86,"t":87,"u":88,"v":89,"w":90,"x":91,"y":92,"z":93,"{":94,"|":95,"}":96,"~":97,"¡":98,"¢":99,"£":100,"¤":101,"¥":102,"¦":103,"§":104,"¨":105,"©":106,"ª":107,"«":108,"¬":109,"®":110,"¯":111,"°":112,"±":113,"²":114,"³":115,"´":116,"µ":117,"¶":118,"·":119,"¸":120,"¹":121,"º":122,"»":123,"¼":124,"½":125,"¾":126,"¿":127,"À":128,"Á":129,"Â":130,"Ã":131,"Ä":132,"Å":133,"Æ":134,"Ç":135,"È":136,"É":137,"Ê":138,"Ë":139,"Ì":140,"Í":141,"Î":142,"Ï":143,"Ð":144,"Ñ":145,"Ò":146,"Ó":147,"Ô":148,"Õ":149,"Ö":150,"×":151,"Ø":152,"Ù":153,"Ú":154,"Û":155,"Ü":156,"Ý":157,"Þ":158,"ß":159,"à":160,"á":161,"â":162,"ã":163,"ä":164,"å":165,"æ":166,"ç":167,"è":168,"é":169,"ê":170,"ë":171,"ì":172,"í":173,"î":174,"ï":175,"ð":176,"ñ":177,"ò":178,"ó":179,"ô":180,"õ":181,"ö":182,"÷":183,"ø":184,"ù":185,"ú":186,"û":187,"ü":188,"ý":189,"þ":190,"ÿ":191,"Ā":192,"ā":193,"Ă":194,"ă":195,"Ą":196,"ą":197,"Ć":198,"ć":199,"Ĉ":200,"ĉ":201,"Ċ":202,"ċ":203,"Č":204,"č":205,"Ď":206,"ď":207,"Đ":208,"đ":209,"Ē":210,"ē":211,"Ĕ":212,"ĕ":213,"Ė":214,"ė":215,"Ę":216,"ę":217,"Ě":218,"ě":219,"Ĝ":220,"ĝ":221,"Ğ":222,"ğ":223,"Ġ":224,"ġ":225,"Ģ":226,"ģ":227,"Ĥ":228,"ĥ":229,"Ħ":230,"ħ":231,"Ĩ":232,"ĩ":233,"Ī":234,"ī":235,"Ĭ":236,"ĭ":237,"Į":238,"į":239,"İ":240,"ı":241,"Ĳ":242,"ĳ":243,"Ĵ":244,"ĵ":245,"Ķ":246,"ķ":247,"ĸ":248,"Ĺ":249,"ĺ":250,"Ļ":251,"ļ":252,"Ľ":253,"ľ":254,"Ŀ":255,"ŀ":256,"Ł":257,"ł":258,"Ń":259,"Ġt":260,"Ġa":261,"in":262,"he":263,"re":264,"on":265,"Ġthe":266,"er":267,"at":268,"Ġs":269,"Ġo":270,"Ġc":271,"en":272,"es":273,"is":274,"nd":275,"Ġw":276,"it":277,"or":278,"Ġp":279,"al":280,"ing":281,"an":282,"Ġf":283,"Ġb":284,"Ġof":285,"ed":286,"Ġin":287,"ou":288,"Ġm":289,"ar":290,"Ġand":291,"ic":292,"Ġto":293,"ion":294,"Ġd":295,"le":296,"ro":297,"as":298,"ent":299,"Ġh":300,"ct":301,"Ġth":302,"Ġe":303,"Ġre":304,"il":305,"om":306,"ĠT":307,"ve":308,"Ġl":309,"us":310,"Ġis":311,"Ġn":312,"et":313,"ly":314,"ol":315,"Ġg":316,"ation":317,"âĢ":318,"st":319,"ĠA":320,"id":321,"im":322,"Ġbe":323,"ra":324,"ce":325,"ow":326,"ch":327,"Ġy":328,"ut":329,"Ġfor":330,"ot":331,"ur":332,"ĠS":333,"ig":334,"ĠI":335,"Ġst":336,"Ġon":337,"ĠC":338,"ul":339,"ver":340,"ay":341,"Ġyou":342,"ĠThe":343,"ir":344,"Ġthat":345,"se":346,"Ġpro":347,"am":348,"Ġas":349,"el":350,"ith":351,"Ġcon":352,"Ġare":353,"Ġan":354,"if":355,"ess":356,"ad":357,"Ġor":358,"Ġwith":359,"her":360,"od":361,"Ġit":362,"ment":363,"ĠP":364,"ers":365,"ĠM":366,"Ġal":367,"ĠW":368,"ge":369,"un":370,"Ġwh":371,"ter":372,"th":373,"ate":374,"ab":375,"Ġde":376,"Ġex":377,"op":378,"ect":379,"ist":380,"ies":381,"Ġcom":382,"ĠB":383,"Ġ(":384,"Ġ1":385,"Ġhe":386,"ive":387,"ure":388,"ill":389,"ity":390,"ĠH":391,"um":392,"qu":393,"Ġv":394,"Ġcan":395,"ore":396,"est":397,"ĠE":398,"ant":399,"ĠD":400,"âĢĻ":401,"ke":402,"Ġha":403,"iv":404,"em":405,"os":406,"ac":407,"ere":408,"ain":409,"Ġus":410,"ĠF":411,"rom":412,"ud":413,"Ġ-":414,"ial":415,"pp":416,"Ġch":417,"Ġby":418,"igh":419,"oc":420,"Ġsu":421,"ĠR":422,"ld":423,"ort":424,"nt":425,"Ġr":426,"ical":427,"Ġ2":428,"res":429,"Ġat":430,"Ġne":431,"Ġfrom":432,"Ġle":433,"and":434,"ĠâĢ":435,"Ġen":436,"Ġse":437,"og":438,"ĠL":439,"art":440,"Ġwor":441,"ĠN":442,"ĠG":443,"Ġyour":444,"ri":445,"Ġsh":446,"pe":447,"Ġhave":448,"ions":449,"per":450,"pt":451,"Ġwas":452,"Ġnot":453,"Ġim":454,"Ġthis":455,"act":456,"ĠO":457,"ight":458,"Ġab":459,"our":460,"ag":461,"ĠIn":462,"ine":463,"pl":464,"Ġpl":465,"ust":466,"Ġwe":467,"all":468,"du":469,"rou":470,"ost":471,"out":472,"ome":473,"iz":474,"Ġu":475,"ich":476,"age":477,"ff":478,"Ġint":479,"ide":480,"ated":481,"ell":482,"ĠTh":483,"Ġk":484,"are":485,"gh":486,"Ġtheir":487,"ther":488,"Ġcomp":489,"ult":490,"ard":491,"Ġad":492,"ak":493,"ans":494,"ast":495,"Ġcont":496,"ks":497,"Ġinc":498,"ould":499,"ĠU":500,"ru":501,"ous":502,"ood":503,"Ġwill":504,"ations":505,"ear":506,"cc":507,"vel":508,"Ġdis":509,"end":510,"hen":511,"orm":512,"Ġres":513,"00":514,"Ġwhich":515,"ib":516,"ip":517,"able":518,"ie":519,"so":520,"ary":521,"rit":522,"Ġall":523,"Ġmore":524,"Ġimp":525,"Ġthey":526,"ence":527,"Ġdo":528,"Ġhas":529,"Ġte":530,"ance":531,"ual":532,"ia":533,"ater":534,"ong":535,"ap":536,"Ġman":537,"ind":538,"ents":539,"oo":540,"ry":541,"ign":542,"Ġcl":543,"ach":544,"Ġun":545,"ĠJ":546,"ire":547,"Ġalso":548,"ction":549,"ep":550,"reat":551,"Ġme":552,"ild":553,"ake":554,"Ġother":555,"Ġj":556,"ition":557,"ĠThis":558,"ĠIt":559,"ass":560,"ress":561,"ase":562,"ces":563,"Ġar":564,"ory":565,"ice":566,"Ġper":567,"ĠWh":568,"av":569,"Ġapp":570,"Ġsy":571,"Ġsp":572,"Ġpre":573,"Ġstud":574,"ĠSt":575,"Ġone":576,"ĠâĢľ":577,"âĢĿ":578,"aus":579,"Ġinf":580,"Ġqu":581,"Ġbut":582,"one":583,"ime":584,"Ġabout":585,"Ġout":586,"'s":587,"ang":588,"ens":589,"ish":590,"iff":591,"ors":592,"Ġso":593,"ree":594,"olog":595,"ace":596,"very":597,"ount":598,"ord":599,"Ġpart":600,"ber":601,"ue":602,"Ġsc":603,"Ġcomm":604,"Ġpe":605,"ric":606,"ike":607,"Ġev":608,"ack":609,"low":610,"now":611,"ile":612,"Ġthem":613,"ays":614,"Ġind":615,"ub":616,"Ġ20":617,"ose":618,"Ġspe":619,"Ġdiff":620,"nder":621,"ph":622,"ĠK":623,"Ġhow":624,"Ġ3":625,"ame":626,"..":627,"ys":628,"Ġmay":629,"ific":630,"ĠY":631,"alth":632,"Ġhel":633,"Ġfe":634,"king":635,"čĊ":636,"Ġwere":637,"ound":638,"Ġuse":639,"ail":640,"Ġro":641,"Ġcol":642,"ite":643,"ates":644,"lud":645,"Ġtra":646,"Ġhelp":647,"ople":648,"ĠV":649,"Ġits":650,"Ġbec":651,"Ġcons":652,"ĠCh":653,"Ġup":654,"Ġwho":655,"cess":656,"ren":657,"ms":658,"ning":659,"ffect":660,"lect":661,"Ġwhen":662,"Ġsome":663,"ments":664,"Ġinto":665,"int":666,"Ġtr":667,"les":668,"Ġrec":669,"Ġact":670,"Ġtime":671,"Ġbet":672,"ities":673,"Ġover":674,"ings":675,"mer":676,"rough":677,"ics":678,"ally":679,"stem":680,"Ġthan":681,"te":682,"Ġacc":683,"velop":684,"Ġthese":685,"Ġdes":686,"ll":687,"ons":688,"Ġunder":689,"Ġpeople":690,"Ġneed":691,"Ġgo":692,"we":693,"Ġknow":694,"vers":695,"Ġ19":696,"erv":697,"Ġlike":698,"ject":699,"Ġmost":700,"Ġess":701,"Ġinclud":702,"ating":703,"Ġbl":704,"ond":705,"Ġused":706,"ple":707,"Ġrel":708,"ious":709,"Ġthere":710,"ian":711,").":712,"tern":713,"Ġsuch":714,"ause":715,"ative":716,"here":717,"Ġyear":718,"Ġour":719,"Ġra":720,"Ġph":721,"Ġpr":722,"lic":723,"Ġag":724,"Ġbeen":725,"ular":726,"row":727,"Ġhis":728,"ough":729,"ook":730,"ove":731,"Ġprov":732,"ient":733,"Ġdiffere":734,"iet":735,"Ġprodu":736,"irst":737,"ob":738,"Ġnew":739,"Ġdevelop":740,"eth":741,"Ġem":742,"Ġgen":743,"Ġhealth":744,"uc":745,"cial":746,"Ġwork":747,"ne":748,"Ġtw":749,"ĠHow":750,"Ġif":751,"Ġany":752,"ract":753,"ool":754,"ature":755,"Ġ\"":756,"ath":757,"Ġchild":758,"ced":759,"Ġsystem":760,"ility":761,"ĠWhat":762,"red":763,"Ġwhat":764,"Ġwrit":765,"Ġass":766,"uring":767,"Ġthrough":768,"als":769,"Ġsa":770,"ful":771,"Ġadd":772,"Ġac":773,"Ġmany":774,"ise":775,"arch":776,"Ġam":777,"Ġpo":778,"ĠRe":779,"ov":780,"ational":781,"Ġreg":782,"rib":783,"erm":784,"ten":785,"Ġoff":786,"Ġ4":787,"ark":788,"Ġfirst":789,"Ġlear":790,"Ġty":791,"Ġwell":792,"Ġrep":793,"chn":794,"oss":795,"Ġexp":796,"ram":797,"round":798,"ĠAs":799,"ower":800,"Ġimport":801,"ert":802,"oth":803,"xt":804,"Ġinv":805,"ble":806,"cy":807,"ased":808,"hed":809,"Ġ5":810,"Ġdec":811,"ĠAn":812,"Ġob":813,"ween":814,"ange":815,"ĠUn":816,"its":817,"ife":818,"Ġpers":819,"Ġtwo":820,"ible":821,"Ġexam":822,"ology":823,"Ġno":824,"Ġshould":825,"ets":826,"form":827,"old":828,"ience":829,"Ġonly":830,"Ġrese":831,"Ġhigh":832,"Ġmake":833,"ting":834,"Ġsub":835,"Ġform":836,"Ġbetween":837,"fter":838,"Ġvar":839,"Ġtrans":840,"Ġwater":841,"Ġsupp":842,"Ġdifferent":843,"gan":844,"Ġco":845,"ĠâĢĵ":846,"hes":847,"Ġ201":848,"Ġdi":849,"Ġatt":850,"ata":851,"ution":852,"own":853,"iss":854,"ef":855,"__":856,"Ġfl":857,"Ġeffect":858,"ng":859,"Ġwould":860,"Ġexper":861,"Ġpres":862,"Ġsoc":863,"ts":864,"ural":865,"Ġsur":866,"Ġsm":867,"Ġprocess":868,"Ġnum":869,"Ġmod":870,"iew":871,"Ġinter":872,"Ġdisc":873,"Ġhad":874,"ness":875,"aking":876,"erg":877,"ines":878,"Ġrem":879,"),":880,"ages":881,"chool":882,"Ġworld":883,"ism":884,"ew":885,"Ġmed":886,"ĠIf":887,"Ġed":888,"ick":889,"Ġsign":890,"aw":891,"ever":892,"Ġspec":893,"ential":894,"ily":895,"ants":896,"Ġtechn":897,"ĠHe":898,"Ġinst":899,"Ġget":900,"Ġke":901,"Ġinform":902,"Ġimportant":903,"Ġgra":904,"Ġdet":905,"Ġbu":906,"ied":907,"Ġart":908,"ict":909,"ade":910,"ĠPro":911,"ĠWe":912,"iron":913,"Ġsim":914,"Ġwhere":915,"Ġread":916,"ures":917,"Ġref":918,"Ġcar":919,"ĠFor":920,"ruct":921,"ron":922,"ins":923,"cept":924,"fore":925,"ited":926,"ps":927,"Ġessay":928,"meric":929,"wn":930,"vent":931,"oy":932,"stand":933,"Ġear":934,"con":935,"ered":936,"Ġyears":937,"Ġway":938,"ives":939,"Ġresp":940,"ues":941,"sel":942,"Ġincre":943,"ident":944,"ize":945,"Ġpol":946,"ds":947,"Ġ|":948,"Ġsk":949,"ices":950,"ft":951,"Ġgener":952,"ually":953,"Ġhum":954,"ollow":955,"ĠAl":956,"Ġlong":957,"ck":958,"ists":959,"ĠYou":960,"ically":961,"Ġfact":962,"Ġher":963,"Ġrequ":964,"ink":965,"ss":966,"uch":967,"Ġlife":968,"ases":969,"Ġdata":970,"ivid":971,"Ġcre":972,"ody":973,"Ġcount":974,"ĠCom":975,"Ġperson":976,"Ġcould":977,"Ġstudents":978,"Ġdoes":979,"Ġmain":980,"Ġdef":981,"Ġresult":982,"ized":983,"Ġsec":984,"Ġbecause":985,"Ġjust":986,"Ġevery":987,"Ġcent":988,"Ġext":989,"Ġeach":990,"Ġsol":991,"Ġresearch":992,"20":993,"ĠThey":994,"Ġlead":995,"ality":996,"Ġlar":997,"Ġusing":998,"Ġcommun":999,"get":1000,"Ġexpl":1001,"Ġafter":1002,"ĠCon":1003,"Ġpat":1004,"iqu":1005,"Ġ6":1006,"Ġprog":1007,"Ġmin":1008,"Ġdep":1009,"arm":1010,"viron":1011,"Ġvery":1012,"Ġinformation":1013,"Ġfound":1014,"Ġche":1015,"Ġstr":1016,"other":1017,"led":1018,"Ġfood":1019,"Ġeven":1020,"Ġfollow":1021,"ection":1022,"Ġaut":1023,"ĠThere":1024,"Ġhist":1025,"Ġstudy":1026,"Ġgrow":1027,"Ġsee":1028,"Ġconc":1029,"Ġpartic":1030,"hip":1031,"ork":1032,"Ġlevel":1033,"Ġchildren":1034,"Ġins":1035,"Ġval":1036,"land":1037,"ec":1038,"Ġproble":1039,"Ġgood":1040,"Ġfind":1041,"Ġcur":1042,"urn":1043,"Ġduring":1044,"Ġfun":1045,"Ġchar":1046,"dition":1047,"Ġthen":1048,"Ġdist":1049,"Ġmon":1050,"Ġcomple":1051,"Ġloc":1052,"Ġent":1053,"ien":1054,"iety":1055,"Ġav":1056,"Ġbeing":1057,"ivers":1058,"ergy":1059,"Ġmy":1060,"Ġcall":1061,"ĠAmeric":1062,"Ġfam":1063,"Ġpub":1064,"any":1065,"io":1066,"Ġown":1067,"...":1068,"Ġset":1069,"vironment":1070,"akes":1071,"Ġprovid":1072,"de":1073,"gg":1074,"Ġunderstand":1075,"Ġgl":1076,"Ġright":1077,"ional":1078,"ward":1079,"Ġappro":1080,"Ġoften":1081,"Ġactiv":1082,"Ġdesign":1083,"Ġschool":1084,"Ġtest":1085,"ĠThese":1086,"Ġclass":1087,"Ġorgan":1088,"ern":1089,"Ġshe":1090,"Ġtyp":1091,"ĠTo":1092,"nce":1093,"ital":1094,"Ġboth":1095,"Ġcor":1096,"ividual":1097,"imes":1098,"Ġcommon":1099,"Ġpop":1100,"Ġanal":1101,"Ġtreat":1102,"Ġlit":1103,"aterial":1104,"ĠInd":1105,"Ġpower":1106,"lish":1107,"ather":1108,"ale":1109,"Ġthose":1110,"ved":1111,"Ġwhile":1112,"der":1113,"Ġelect":1114,"Ġserv":1115,"Ġbody":1116,"Ġshow":1117,"Ġmuch":1118,"Ġless":1119,"Ġredu":1120,"acter":1121,"Ġpract":1122,"ĠSc":1123,"line":1124,"Ġ18":1125,"Ġstate":1126,"ĠEx":1127,"Ġ10":1128,"Ġmade":1129,"ax":1130,"Ġprot":1131,"ty":1132,"tle":1133,"iel":1134,"com":1135,"ethod":1136,"Ġpa":1137,"Ġback":1138,"Ġgu":1139,"raph":1140,"Ġris":1141,"angu":1142,"ĠAr":1143,"Ġequ":1144,"Ġtake":1145,"Ġnumber":1146,"Ġindividual":1147,"Ġstart":1148,"inal":1149,"ving":1150,"Ġend":1151,"und":1152,"Ġworks":1153,"Ġconsid":1154,"iness":1155,"Ġ7":1156,"ute":1157,"Ġhand":1158,"Ġ200":1159,"ted":1160,"read":1161,"rol":1162,"ĠWhen":1163,"Ġadv":1164,"Ġdise":1165,"Ġcare":1166,"Ġlearn":1167,"ix":1168,"Ġquest":1169,"eng":1170,"ined":1171,"Ġgrou":1172,"Ġsupport":1173,"Ġeduc":1174,"ium":1175,"Ġsmall":1176,"Ġsame":1177,"Ġbr":1178,"ĠAd":1179,"omen":1180,"ids":1181,"Ġeng":1182,"Ġmaterial":1183,"ral":1184,"vern":1185,"Ġincluding":1186,"Ġplay":1187,"ock":1188,"itions":1189,"||":1190,"Ġexample":1191,"Ġposs":1192,"Ġhuman":1193,"Ġtop":1194,"uss":1195,"Ġday":1196,"ulation":1197,"ization":1198,"Ġplan":1199,"Ġsocial":1200,"Ġbefore":1201,"imate":1202,"rodu":1203,"ources":1204,"Ġcell":1205,"eg":1206,"Ġvis":1207,"Ġenvironment":1208,"Ġmet":1209,"day":1210,"Ġ8":1211,"itive":1212,"ves":1213,"Ġide":1214,"Ġeas":1215,"Ġ.":1216,"Ġproduct":1217,"Ġimpro":1218,"Ġallow":1219,"Ġenergy":1220,"ering":1221,"conom":1222,"ĠEng":1223,"Ġdown":1224,"ier":1225,"Ġmethod":1226,"Ġprof":1227,"Ġaround":1228,"ains":1229,"Ġbel":1230,"The":1231,"Ġrequire":1232,"ince":1233,"ental":1234,"ars":1235,"Ġocc":1236,"Ġgreat":1237,"Ġsym":1238,"iving":1239,"Ġcle":1240,"cing":1241,"ffic":1242,"ining":1243,"oms":1244,"Ġconf":1245,"Ġpot":1246,"Ġpoint":1247,"hers":1248,"Ġbeh":1249,"Ġmem":1250,"ĠIs":1251,"Ġ&":1252,"Ġ9":1253,"Ġpur":1254,"Ġmus":1255,"co":1256,"Ġdevelopment":1257,"ills":1258,"ished":1259,"up":1260,"irect":1261,"Ġknown":1262,"Ġphys":1263,"ption":1264,"Ġcult":1265,"Ġmust":1266,"ĠAnd":1267,"Ġthree":1268,"Ġconst":1269,"ĠQ":1270,"pect":1271,"aj":1272,"Ġtem":1273,"ples":1274,"ash":1275,"Ġben":1276,"ĠNew":1277,"Ġsaid":1278,"Ġwriting":1279,"Ġser":1280,"ĠHowever":1281,"Ġlearning":1282,"tt":1283,"Ġbest":1284,"ave":1285,"Ġbo":1286,"Ġcaus":1287,"ull":1288,"gen":1289,"ify":1290,"Ġcour":1291,"tain":1292,"ability":1293,"view":1294,"ex":1295,"Ġop":1296,"Ġiss":1297,"bs":1298,"els":1299,"Ġident":1300,"ries":1301,"ĠRes":1302,"iod":1303,"ination":1304,"ven":1305,"Ġmat":1306,"ury":1307,"Ġwithin":1308,"Ġagain":1309,"anguage":1310,"Ġdr":1311,"000":1312,"ross":1313,"agn":1314,"Ġinclude":1315,"rent":1316,"ior":1317,"Ġest":1318,"Ġprovide":1319,"Ġnow":1320,"Ġbus":1321,"Ġtoo":1322,"19":1323,"Ġpresent":1324,"Ġlight":1325,"Ġwant":1326,"Ġpos":1327,"ĠSh":1328,"Ġcontin":1329,"Ġproper":1330,"Ġbuild":1331,"Ġhy":1332,"Ġcr":1333,"Ġsignific":1334,"Ġhistory":1335,"Ġhome":1336,"iversity":1337,"ertain":1338,"ĠPl":1339,"ateg":1340,"reen":1341,"Ġmark":1342,".âĢĿ":1343,"ration":1344,"ĠBut":1345,"ouse":1346,"ware":1347,"iven":1348,"Ġchang":1349,"Ġve":1350,"Ġfin":1351,"ĠSp":1352,"ĠSe":1353,"Ġbook":1354,"Ġdesc":1355,"ĠDe":1356,"Ġdem":1357,"Ġcalled":1358,"oci":1359,"Ġreport":1360,"Ġstand":1361,"ense":1362,"Ġlarge":1363,"Ġsom":1364,"erest":1365,"Ġfree":1366,"Ġplace":1367,"ource":1368,"Ġcap":1369,"Ġpar":1370,"ared":1371,"cl":1372,"rain":1373,"Ġbas":1374,"Ġele":1375,"air":1376,"Ġmight":1377,"ological":1378,"ording":1379,"Ġchange":1380,"Ġproject":1381,"ĠWor":1382,"self":1383,"icle":1384,"ner":1385,"Ġaddition":1386,"Ġmeas":1387,"bers":1388,"inc":1389,"lu":1390,"Ġgovern":1391,"Ġwithout":1392,"uro":1393,"ysis":1394,"Ġsaf":1395,"ger":1396,"apt":1397,"Ġmean":1398,"Ġbenef":1399,"Ġtype":1400,"Ġpaper":1401,"irc":1402,"me":1403,"Ġimpact":1404,"Ġcreat":1405,"Ġblood":1406,"ĠPh":1407,"Ġland":1408,"Ġcal":1409,"Ġperform":1410,"Ġthough":1411,"outh":1412,"less":1413,"Ġeconom":1414,"iver":1415,"way":1416,"cent":1417,"oun":1418,"Ġ0":1419,"Ġdid":1420,"ah":1421,"ason":1422,"Ġprom":1423,"ories":1424,"atic":1425,"Ġvarious":1426,"ĠCl":1427,"ank":1428,"Ġpublic":1429,"ograph":1430,"orn":1431,"ision":1432,"sw":1433,"Ġaffect":1434,".,":1435,"Ġpain":1436,"Ġcause":1437,"Ġbre":1438,"au":1439,"ication":1440,"Ġimm":1441,"ĠTe":1442,"Ġdev":1443,"ats":1444,"Ġmill":1445,"cer":1446,"hor":1447,"Ġstruct":1448,"Ġinvol":1449,"Ġbetter":1450,"ccess":1451,"the":1452,"atural":1453,"____":1454,"sc":1455,"Ġrisk":1456,"Ġcontrol":1457,"Ġkeep":1458,"Ġdisease":1459,"Ġfew":1460,"ield":1461,"Ġsit":1462,"Ġmeans":1463,"ĠCan":1464,"ajor":1465,"arent":1466,"Ġsl":1467,"Ġoper":1468,"Ġplant":1469,"Ġant":1470,"Ġstill":1471,"Ġsever":1472,"ected":1473,"ĠBy":1474,"osed":1475,"Ġorder":1476,"ards":1477,"ogn":1478,"ocus":1479,"Ġbecome":1480,"Ġdon":1481,"Ġlow":1482,"Ġsignificant":1483,"ified":1484,"Ġarea":1485,"ĠOn":1486,"Ġreal":1487,"Ġmult":1488,"gin":1489,"rop":1490,"ĠâĢĺ":1491,"Ġdirect":1492,"Ġlanguage":1493,"Ġwords":1494,"par":1495,"Ġmaking":1496,"Ġens":1497,"Ġanim":1498,"Ġinterest":1499,"Ġwomen":1500,"Ġbusiness":1501,"Ġopp":1502,"Ġfeel":1503,"oad":1504,"Ġbelie":1505,"sy":1506,"Ġair":1507,"oid":1508,"Ġconn":1509,"ames":1510,"Ġbased":1511,"ention":1512,"Ġcost":1513,"Ġhim":1514,"ĠWith":1515,"Ġpass":1516,"Ġmar":1517,"Ġaccess":1518,"Ġet":1519,"Ġprogram":1520,"Ġavail":1521,"Ġes":1522,"work":1523,"ways":1524,"Ġlaw":1525,"Ġleg":1526,"Ġsecond":1527,"Ġcreate":1528,"Ġmove":1529,"ooks":1530,"Ġter":1531,"Ġwar":1532,"Ġfollowing":1533,"ug":1534,"agement":1535,"Ġindust":1536,"Ġlook":1537,"az":1538,"Ġanother":1539,"ik":1540,"Ġprevent":1541,"Ġparticular":1542,"Ġdel":1543,"ĠEn":1544,"Ġfamily":1545,"Ġspecific":1546,"Ġtext":1547,"ote":1548,"ĠSo":1549,"Ġmajor":1550,"Ġtypes":1551,"Ġret":1552,"ients":1553,"pr":1554,"10":1555,"Ġseveral":1556,"Ġpotential":1557,"ances":1558,"ator":1559,"Ġeffective":1560,"Ġcurrent":1561,"Ġperiod":1562,"Ġtre":1563,"Ġtool":1564,"Ġcharacter":1565,"elf":1566,"Ġoccur":1567,"ends":1568,"Ġname":1569,"eral":1570,"ently":1571,"Ġfocus":1572,"Ġinvest":1573,"oh":1574,"rap":1575,"ĠAmerican":1576,"Ġ[":1577,"ique":1578,"Ġhig":1579,"ĠCol":1580,"Ġable":1581,"Ġcomput":1582,"Ġbi":1583,"Ġapplic":1584,"Ġobject":1585,"Ġnon":1586,"Ġearly":1587,"ots":1588,"Ġdue":1589,"ling":1590,"Ġtreatment":1591,"Ġold":1592,"Ġgroup":1593,"Ġcond":1594,"Ġrest":1595,"ole":1596,"Ġfunction":1597,"âĢĶ":1598,"ĠAt":1599,"Ġfre":1600,"ledge":1601,"ides":1602,"Ġhapp":1603,"Ġsystems":1604,"Ġproblems":1605,"Ġbehav":1606,"Ġintern":1607,"Ġtechnology":1608,"hem":1609,"Ġlim":1610,"Ġcertain":1611,"Ġeducation":1612,"Ġcrit":1613,"lished":1614,"Ġ15":1615,"ploy":1616,",âĢĿ":1617,"Ġlast":1618,"br":1619,"Ġkey":1620,"ĠOne":1621,"port":1622,"be":1623,"Ġlist":1624,"Ġ12":1625,"Ġflow":1626,"Ġpossible":1627,"Ġshort":1628,"Ġage":1629,"ton":1630,"to":1631,"Ġfore":1632,"Ġprofess":1633,"ived":1634,"oring":1635,"Ġhere":1636,"ression":1637,"Ġpress":1638,"Ġrole":1639,"man":1640,"Ġgr":1641,"ilar":1642,"Ġorig":1643,"Ġview":1644,"olution":1645,"'t":1646,"por":1647,"ĠBe":1648,"ĠUnited":1649,"Ġexperience":1650,"Ġfac":1651,"Ġanalysis":1652,"ina":1653,"Ġavailable":1654,"Ġimprove":1655,"Ġproblem":1656,"Ġel":1657,"Ġthings":1658,"ead":1659,"perature":1660,"Ġothers":1661,"Ġdeterm":1662,"Ġnatural":1663,"Ġopen":1664,"Ġamount":1665,"orth":1666,"ĠUniversity":1667,"pecial":1668,"erc":1669,"Ġopt":1670,"ĠSome":1671,"ĠIm":1672,"Ġskills":1673,"Ġessential":1674,"Ġconsum":1675,"Ġcountry":1676,"Ġvir":1677,"Ġscient":1678,"icult":1679,"Ġmil":1680,"ument":1681,"etic":1682,"Ġdra":1683,"Ġworkshe":1684,"Ġagainst":1685,"cle":1686,"ĠEnglish":1687,"Ġassoci":1688,"Ġareas":1689,"Ġsuccess":1690,"ended":1691,"cul":1692,"ane":1693,"Ġcirc":1694,"Ġgovernment":1695,"Ġneeds":1696,"ĠAll":1697,"ones":1698,"uture":1699,"arc":1700,"Ġstep":1701,"Ġlevels":1702,"ĠOr":1703,"Ġcy":1704,"oint":1705,"Ġfil":1706,"ĠâĢĶ":1707,"Ġamong":1708,"Ġwee":1709,"Ġterm":1710,"Ġspecies":1711,"urther":1712,"Ġtimes":1713,"Ġvol":1714,"abor":1715,"ptoms":1716,"ised":1717,"ians":1718,"Ġintrodu":1719,"Ġhard":1720,"Ġchall":1721,"Ġ...":1722,"Ġdig":1723,"Ġcase":1724,"ĠDo":1725,"Ġdiscuss":1726,"amp":1727,"idence":1728,"Ġsince":1729,"ĠComm":1730,"resent":1731,"Ġcomb":1732,"Ġwhe":1733,"ission":1734,"ape":1735,"ables":1736,"Ġpost":1737,"ortun":1738,"ret":1739,"atory":1740,"Ġwhy":1741,"ox":1742,"Ġusually":1743,"rist":1744,"Ġcome":1745,"Ġcolle":1746,"face":1747,"oph":1748,"Ġtemperature":1749,"Ġfour":1750,"Ġ'":1751,"Ġconditions":1752,"Ġincrease":1753,"ilities":1754,"ĠStud":1755,"Ġcourse":1756,"Ġthink":1757,"Ġmonth":1758,"osp":1759,"utions":1760,"Ġi":1761,"ending":1762,"Ġhead":1763,"obal":1764,"urope":1765,"Ġspecial":1766,"Ġphysical":1767,"Ġansw":1768,"Ġquestions":1769,"put":1770,"Ġsw":1771,"ĠZ":1772,"ym":1773,"Ġmot":1774,"Ġrun":1775,"ird":1776,"icro":1777,"Ġkind":1778,"ĠBl":1779,"let":1780,"Ġcells":1781,"ĠStates":1782,"Ġrelations":1783,"ĠâĢ¢":1784,"une":1785,"Ġyoung":1786,"Ġunderstanding":1787,"Ġteac":1788,"Ġeffects":1789,"Ġresults":1790,"Ġsay":1791,"ope":1792,"Ġword":1793,"ode":1794,"over":1795,"Ġinflu":1796,"Ġknowledge":1797,"Ġquality":1798,"aster":1799,"Ġarticle":1800,"ething":1801,"âĢĵ":1802,"Ġheart":1803,"Ġdescrib":1804,"asing":1805,"sych":1806,"Ġ,":1807,"Ġplants":1808,"fric":1809,"Ġactivities":1810,"Ġnet":1811,"Ġchem":1812,"though":1813,"Ġrele":1814,"Ġmen":1815,"Ġrad":1816,"ĠWhile":1817,"Ġnut":1818,"ems":1819,"Ġbegin":1820,"Ġrece":1821,"Ġprim":1822,"iation":1823,"pos":1824,"Ġenc":1825,"oney":1826,"Ġsing":1827,"chie":1828,"aching":1829,"Ġliter":1830,"ĠÂ":1831,"Ġdifficult":1832,"Ġways":1833,"Ġbro":1834,"Ġ=":1835,"Ġdiet":1836,"inking":1837,"ruction":1838,"Ġfuture":1839,"Ġsubject":1840,"Ġindividuals":1841,"Ġauthor":1842,"Ġcontrib":1843,"Ġer":1844,"Ġ/":1845,"omm":1846,"Ġstory":1847,"Ġrespons":1848,"Ġsum":1849,"Ġput":1850,"Ġnecess":1851,"Ġill":1852,"Ġconsider":1853,"Ġgive":1854,"iple":1855,"Ġaccount":1856,"Ġsens":1857,"Ġcontain":1858,"Ġmaterials":1859,"duct":1860,"Ġcomplete":1861,"Ġsymptoms":1862,"Ġalways":1863,"Ġconcept":1864,"Ġnear":1865,"ires":1866,"Ġmarket":1867,"Ġgrowth":1868,"idd":1869,"Ġresources":1870,"ĠPr":1871,"fact":1872,"ured":1873,"Ġstrong":1874,"pecially":1875,"Ġ17":1876,"ators":1877,"Ġpast":1878,"Ġspace":1879,"Ġey":1880,"Ġline":1881,"Ġchanges":1882,"Ġsomething":1883,"Ġissues":1884,"Ġwrite":1885,"ggest":1886,"ĠEar":1887,"Ġpolit":1888,"ember":1889,"ring":1890,"bon":1891,"Ġvalue":1892,"Ġdam":1893,"Ġunt":1894,"aves":1895,"Ġonline":1896,"Ġparent":1897,"Ġrange":1898,"Ġtoget":1899,"Ġtogether":1900,"Ġscience":1901,"Ġlot":1902,"Ġsimilar":1903,"Ġgiven":1904,"Ġfactors":1905,"Ġhigher":1906,"af":1907,"Ġtoday":1908,"Ġobs":1909,"Ġteam":1910,"Ġpractice":1911,"iting":1912,"ivity":1913,"Ġself":1914,"ately":1915,"Ġlet":1916,"of":1917,"Ġz":1918,"ged":1919,"ĠâĢ¦":1920,"atch":1921,"ours":1922,"Ġproduction":1923,"Ġ16":1924,"ĠUS":1925,"not":1926,"Ġmind":1927,"Ġstrateg":1928,"Ġdays":1929,"Ġproducts":1930,"Ġfull":1931,"Ġtry":1932,"istic":1933,"Ġcommunity":1934,"alk":1935,"Ġworking":1936,"ush":1937,"Ġachie":1938,"Ġeffic":1939,"Ġsure":1940,"aces":1941,"Ġlittle":1942,"orts":1943,"izing":1944,"Ġmakes":1945,"Ġclear":1946,"Ġfeature":1947,"Ġturn":1948,"ĠQu":1949,"lement":1950,"18":1951,"Ġsuggest":1952,"Ġreduce":1953,"Ġcountries":1954,"ĠEurope":1955,"ored":1956,"ler":1957,"Ġ199":1958,"emic":1959,"Ġalong":1960,"ĠAb":1961,"ification":1962,"ips":1963,"Ġlocal":1964,"Ġappear":1965,"Ġbrain":1966,"Ġsal":1967,"oot":1968,"ably":1969,"12":1970,"Ġacross":1971,"rug":1972,"Ġprev":1973,"Ġpersonal":1974,"ĠLe":1975,"ray":1976,"ĠInst":1977,"Ġactivity":1978,"tal":1979,"ĠMed":1980,"urity":1981,"omes":1982,"Ġcho":1983,"Ġweight":1984,"Ġnorm":1985,"Ġespecially":1986,"ww":1987,"app":1988,"ooking":1989,"Ġhealthy":1990,"Ġemploy":1991,"Ġprotect":1992,"Ġmanagement":1993,"mit":1994,"Ġdeath":1995,"ĠAfric":1996,"Ġrelationship":1997,"ired":1998,"iction":1999,"Ġcontent":2000,"Ġloss":2001,"Ġgeneral":2002,"ibility":2003,"Ġmodel":2004,"aken":2005,"ĠTr":2006,"Ġver":2007,"yle":2008,"Ġprovides":2009,"Ġgre":2010,"Ġ$":2011,"aging":2012,"ĠCont":2013,"use":2014,"Ġdetail":2015,"Ġquestion":2016,"ency":2017,"Ġsent":2018,"à¤":2019,"aring":2020,"Ġcentury":2021,"usion":2022,"Ġexist":2023,"ann":2024,"ising":2025,"Ġreading":2026,"ety":2027,"ustom":2028,"ipp":2029,"amm":2030,"Ġpopulation":2031,"aut":2032,"Ġhaving":2033,"Ġlikely":2034,"Ġsource":2035,"Ġlower":2036,"uation":2037,"Ġaddress":2038,"erence":2039,"ung":2040,"ither":2041,"50":2042,"ĠDes":2043,"Ġmedical":2044,"osis":2045,"Ġstress":2046,"Ġstudies":2047,"Ġmov":2048,"ried":2049,"oose":2050,"ĠCent":2051,"Ġbat":2052,"Ġsimple":2053,"Ġarg":2054,"aps":2055,"Ġut":2056,"Ġpercent":2057,"Ġestab":2058,"thing":2059,"Ġsubst":2060,"Ġfield":2061,"Ġrecord":2062,"Ġ11":2063,"nal":2064,"Ġwide":2065,"omet":2066,"ER":2067,"Ġsociety":2068,"min":2069,"ison":2070,"Ġensure":2071,"Ġneg":2072,"Ġsam":2073,"ges":2074,"Ġtradition":2075,"Ġcomplex":2076,"Ġfar":2077,"eds":2078,"ĠFr":2079,"Ġsize":2080,"ĠResear":2081,"Ġrepresent":2082,"ĠGo":2083,"ĠAcc":2084,"ĠYour":2085,"ences":2086,"Ġuntil":2087,"Ġpressure":2088,"ĠHealth":2089,"Ġservices":2090,"Ġcases":2091,"ery":2092,"anced":2093,"Ġrecogn":2094,"ream":2095,"Ġindic":2096,"Ġmillion":2097,"Ġrelated":2098,"Ġ14":2099,"Ġtru":2100,"Ġexperien":2101,"Ġcorre":2102,"Ġlive":2103,"Ġtoward":2104,"utes":2105,"Ġmaintain":2106,"Ġhelps":2107,"light":2108,"Ġpatients":2109,"leep":2110,"Ġsoil":2111,"ĠMan":2112,"Ġnext":2113,"fer":2114,"Ġpopular":2115,"ancial":2116,"Ġside":2117,"ustain":2118,"ites":2119,"ĠNe":2120,"Ġprint":2121,"Ġsoft":2122,"Ġbig":2123,"ĠWorld":2124,"Ġrate":2125,"Ġmach":2126,"ĠSy":2127,"rams":2128,"oura":2129,"Ġcancer":2130,"ĠNational":2131,"for":2132,"Ġstructure":2133,"Ġfund":2134,"verage":2135,"acy":2136,"abet":2137,"Ġpred":2138,"Ġphot":2139,"Ġmethods":2140,"Ġbelow":2141,"Ġbenefits":2142,"Ġassociated":2143,"âĢ¦":2144,"Ġfrequ":2145,"ĠInt":2146,"ĠAfter":2147,"ĠChrist":2148,"Ġability":2149,"Ġchalleng":2150,"ĠAm":2151,"ĠThat":2152,"ae":2153,"by":2154,"ĠHere":2155,"Ġgoing":2156,"Ġreason":2157,"Ġreact":2158,"NA":2159,"Ġconsidered":2160,"Ġhouse":2161,"Ġresearc":2162,"nces":2163,"Ġdeg":2164,"Ġglobal":2165,"Ġwhether":2166,"Ġsurface":2167,"Ġcondition":2168,"Ġexerc":2169,"ĠGen":2170,"ĠDis":2171,"Ġdoc":2172,"Ġstat":2173,"Ġaway":2174,"Ġstates":2175,"Ġ30":2176,"Ġinteract":2177,"Ġcolor":2178,"Ġengine":2179,"ask":2180,"Ġabs":2181,"Ġenough":2182,"Ġdog":2183,"ĠGod":2184,"Ġfri":2185,"istics":2186,"ibr":2187,"ĠOf":2188,"Ġleast":2189,"ĠWhy":2190,"Ġfurther":2191,"ohn":2192,"Ġreview":2193,"ĠMore":2194,"ee":2195,"Ġ202":2196,"Ġbir":2197,"Ġmoney":2198,"Ġmass":2199,"Ġabove":2200,"Ġsingle":2201,"Ġapproach":2202,"Ġvide":2203,"most":2204,"urs":2205,".\"":2206,"Ġcru":2207,"Ġcompany":2208,"Ġrecomm":2209,"Ġpay":2210,"Ġaccording":2211,"Ġopportun":2212,"Ġhowever":2213,"ĠBrit":2214,"Ġflu":2215,"Ġlay":2216,"Ġcomes":2217,"ounds":2218,"Ġquick":2219,"Ġge":2220,"ises":2221,"Ġcomputer":2222,"Ġpsych":2223,"Ġassess":2224,"Ġlater":2225,"ĠAss":2226,"Ġdeveloped":2227,"ĠUs":2228,"Ġpage":2229,"oman":2230,"plic":2231,"ĠLear":2232,"Ġur":2233,"Ġnature":2234,"ĠCO":2235,"ches":2236,"Ġmodern":2237,"icial":2238,"ĠGerm":2239,"Ġbehavior":2240,"iol":2241,"Ġpolic":2242,"Ġeasy":2243,"Ġmeaning":2244,"ney":2245,"ilt":2246,"Ġ13":2247,"Ġsays":2248,"side":2249,"Ġavoid":2250,"ĠShe":2251,"icles":2252,"Ġworksheets":2253,"Ġcompon":2254,"Ġjour":2255,"Ġste":2256,"ĠCar":2257,"Ġeconomic":2258,"Ġnecessary":2259,"Ġskin":2260,"Ġfat":2261,"17":2262,"Ġdefin":2263,"Ġbal":2264,"edi":2265,"ule":2266,"selves":2267,"ott":2268,"ĠDr":2269,"Ġincludes":2270,"Ġemot":2271,"ĠPre":2272,"ĠRead":2273,"load":2274,"Ġparts":2275,"ĠMar":2276,"Ġred":2277,"ĠSu":2278,"Ġreally":2279,"amin":2280,"Ġinit":2281,"pose":2282,"chan":2283,"Ġprote":2284,"ĠEm":2285,"ufact":2286,"//":2287,"Ġleft":2288,"reng":2289,"Ġstudent":2290,"ivil":2291,"Ġcreated":2292,"roll":2293,"ores":2294,"Ġessays":2295,"rast":2296,"Ġindustry":2297,"Ġcut":2298,"nam":2299,"elling":2300,"Ġvers":2301,"Ġvariety":2302,"ĠWar":2303,"Ġwind":2304,"ections":2305,"ening":2306,"Ġcollect":2307,"Ġchemical":2308,"Ġclimate":2309,"Ġground":2310,"Ġcustom":2311,"lying":2312,"Ġcauses":2313,"Ġevent":2314,"Ġdrug":2315,"Ġsun":2316,"://":2317,"Ġhistor":2318,"Ġfall":2319,"ĠMe":2320,"ival":2321,"Ġwhite":2322,"Ġcity":2323,"Ġrev":2324,"Ġwritten":2325,"Ġnever":2326,"Ġrequired":2327,"Ġmental":2328,"Ġinteg":2329,"alf":2330,"Ġpositive":2331,"Ġoil":2332,"gest":2333,"ĠApp":2334,"Ġidentify":2335,"epend":2336,"Ġdisord":2337,"Ġport":2338,"rate":2339,"bol":2340,"ming":2341,"ley":2342,"ĠAct":2343,"Ġgroups":2344,"Ġanaly":2345,"Ġdom":2346,"Ġbuilding":2347,"Ġculture":2348,"ont":2349,"hern":2350,"Ġdone":2351,"Ġeff":2352,"itation":2353,"overed":2354,"erous":2355,"ography":2356,"Ġthroughout":2357,"Ġjob":2358,"ĠSoc":2359,"Ġheat":2360,"ĠIntern":2361,"acc":2362,"Ġcoll":2363,"Ġanimals":2364,"ands":2365,"Ġfinancial":2366,"Ġmicro":2367,"Ġclean":2368,"ok":2369,"verse":2370,"Ġvari":2371,"ze":2372,"Ġliving":2373,"astic":2374,"Ġtraining":2375,"Ġweek":2376,"iam":2377,"Ġrelig":2378,"reme":2379,"ump":2380,"oles":2381,"Ġblack":2382,"Ġgas":2383,"itud":2384,"Ġideas":2385,"Ġfive":2386,"11":2387,"onst":2388,"Ġmeasure":2389,"Ġconcern":2390,"Ġprinc":2391,"aim":2392,"Ġterms":2393,"ales":2394,"Ġclose":2395,"Ġparticip":2396,"ensive":2397,"Ġmusic":2398,"Ġcop":2399,"ready":2400,"Ġce":2401,"Ġgreen":2402,"sequ":2403,"Ġidea":2404,"Ġhold":2405,"iques":2406,"Ġactually":2407,"Ġunique":2408,"Ġobserv":2409,"ĠMany":2410,"ĠGu":2411,"Ġenvironmental":2412,"ging":2413,"based":2414,"Ġincreased":2415,"Ġseen":2416,"rad":2417,"Ġcat":2418,"ĠHist":2419,"Ġmeet":2420,"ĠIndia":2421,"Ġkids":2422,"Ġsources":2423,"Ġadult":2424,"Ġregular":2425,"Ġpattern":2426,"ĠEss":2427,"ume":2428,"ID":2429,"augh":2430,"acks":2431,"rict":2432,"arr":2433,"Ġcritical":2434,"Ġpath":2435,"pro":2436,"rapy":2437,"Ġbar":2438,"30":2439,"ĠPe":2440,"Ġmedic":2441,"Ġtools":2442,"Ġbasic":2443,"Ġsite":2444,"cient":2445,"ĠCal":2446,"Ġcheck":2447,"Ġemer":2448,"ĠNo":2449,"Ġwhole":2450,"Ġcarbon":2451,"ender":2452,"iddle":2453,"Ġwebs":2454,"Ġlove":2455,"ĠAmerica":2456,"Ġask":2457,"Ġ100":2458,"ĠGe":2459,"Ġmor":2460,"ES":2461,"Ġann":2462,"enn":2463,"16":2464,"Ġelectric":2465,"Ġstreng":2466,"Ġarch":2467,"yl":2468,"rated":2469,"ronic":2470,"Ġsafe":2471,"Ġeither":2472,"Ġservice":2473,"Ġperformance":2474,"Ġproduce":2475,"ĠSouth":2476,"Ġpolitical":2477,"Ġalready":2478,"Ġnational":2479,"ctions":2480,"Ġdesigned":2481,"lex":2482,"gar":2483,"Ġenh":2484,"Ġuses":2485,"ĠMay":2486,"erve":2487,"Ġ:":2488,"Ġexamples":2489,"aily":2490,"Ġregard":2491,"Ġbreak":2492,"Ġsleep":2493,"sh":2494,"ĠResearch":2495,"Ġallows":2496,"Ġsustain":2497,"Ġsuper":2498,"AT":2499,"ĠFrom":2500,"Ġfeed":2501,"Ġfish":2502,"Ġmedia":2503,"oon":2504,"ĠComp":2505,"ript":2506,"ules":2507,"Ġselect":2508,"Ġconduct":2509,"Ġdoct":2510,"ai":2511,"Ġbooks":2512,"ights":2513,"Ġremain":2514,"cies":2515,"Ġneeded":2516,"Ġlif":2517,"Ġoffer":2518,"Ġanswer":2519,"Ġlives":2520,"Ġonce":2521,"Ġshows":2522,"ublic":2523,"Ġmanufact":2524,"ĠFe":2525,"like":2526,"iency":2527,"het":2528,"AS":2529,"ĠEarth":2530,"ĠWrit":2531,"Ġsafety":2532,"Ġincreasing":2533,"duc":2534,"ma":2535,"Ġeth":2536,"Ġrather":2537,"Ġrights":2538,"go":2539,"15":2540,"Ġhab":2541,"oll":2542,"Ġfail":2543,"vant":2544,"ties":2545,"onse":2546,"hing":2547,"Ġaction":2548,"Ġtotal":2549,"mber":2550,"Ġresearchers":2551,"Ġdraw":2552,"Ġfamil":2553,"Ġtaking":2554,"apter":2555,"Ġlab":2556,"ĠJohn":2557,"Ġfru":2558,"Ġetc":2559,"ued":2560,"Ġaspect":2561,"place":2562,"Ġprec":2563,"hens":2564,"apan":2565,"Ġhyd":2566,"ply":2567,"Ġharm":2568,"vere":2569,"Ġcommunication":2570,"istance":2571,"ĠMost":2572,"Ġcrucial":2573,"Ġcaused":2574,"illed":2575,"Ġtaken":2576,"Ġtar":2577,"Ġsepar":2578,"abetes":2579,"eter":2580,"Ġprob":2581,"ĠRep":2582,"Ġbecame":2583,"ĠAust":2584,"ese":2585,"Ġexplain":2586,"Ġevidence":2587,"Ġpie":2588,"Ġparents":2589,"Ġpublished":2590,"Ġmath":2591,"Ġmembers":2592,"Ġdiagn":2593,"uel":2594,"In":2595,"ĠX":2596,"ĠTra":2597,"Ġcannot":2598,"ene":2599,"Ġsex":2600,"Ġhtt":2601,"Ġox":2602,"lease":2603,"Ġeat":2604,"Ġsense":2605,"Ġentire":2606,"Ġexperim":2607,"Ġgrade":2608,"ively":2609,"Ġwin":2610,"hy":2611,"reg":2612,"mon":2613,"ength":2614,"Ġcompan":2615,"Ġtheory":2616,"Ġnumbers":2617,"Ġthought":2618,"Ġlink":2619,"room":2620,"Ġprimary":2621,"inary":2622,"ĠAccording":2623,"Ġdifference":2624,"ĠNorth":2625,"aced":2626,"aged":2627,"AR":2628,"Ġtechniques":2629,"Ġtopic":2630,"Ġmechan":2631,"Ġfem":2632,"Ġever":2633,"wor":2634,"Ġsat":2635,"ĠKe":2636,"Ġelements":2637,"Ġcompet":2638,"pri":2639,"Ġmonths":2640,"lor":2641,"apers":2642,"hat":2643,"aling":2644,"sis":2645,"ĠCo":2646,"Ġconsist":2647,"ĠPer":2648,"Ġbra":2649,"Ġpriv":2650,"Ġspread":2651,"ĠScience":2652,"Ġgain":2653,"aff":2654,"Ġaud":2655,"Ġhours":2656,"Ġmultiple":2657,"nov":2658,"Ġap":2659,"Ġmagn":2660,"Ġfoods":2661,",\"":2662,"Ġdamage":2663,"Ġposition":2664,"Ġstop":2665,"ĠCons":2666,"rown":2667,"Ġthemselves":2668,"Ġtell":2669,"Ġcontact":2670,"fect":2671,"Ġdest":2672,"aches":2673,"Ġdeep":2674,"14":2675,"Ġrefer":2676,"Ġstandard":2677,"Ġ25":2678,"mar":2679,"Ġnews":2680,"Ġpoll":2681,"Ġshare":2682,"Ġsuff":2683,"hold":2684,"val":2685,"Ġface":2686,"Ġevents":2687,"Ġcorrect":2688,"aving":2689,"ters":2690,"Ġregion":2691,"Ġattention":2692,"rel":2693,"Ġregul":2694,"Ġachieve":2695,"Ġlog":2696,"Ġep":2697,"Ġfeatures":2698,"oor":2699,"rior":2700,"hib":2701,"asc":2702,"Ġvideo":2703,"yp":2704,"Ġeval":2705,"Ġapplications":2706,"ĠDep":2707,"itution":2708,"Ġtraditional":2709,"Ġemb":2710,"fully":2711,"ĠAre":2712,"Ġla":2713,"Ġmatter":2714,"ura":2715,"Ġimportance":2716,"Ġforms":2717,"Ġsoftware":2718,"Ġquant":2719,"Ġvirus":2720,"Ġ50":2721,"ĠEduc":2722,"Ġtravel":2723,"Ġguid":2724,"osing":2725,"ners":2726,"itary":2727,"Ġx":2728,"Ġaim":2729,"Ġrespect":2730,"ils":2731,"Ġimplement":2732,"Ġarr":2733,"uck":2734,"Ġpurpose":2735,"Ġfig":2736,"Ġreturn":2737,"Ġfire":2738,"ront":2739,"Ġbacter":2740,"vey":2741,"hood":2742,"Ġdigital":2743,"Ġsymbol":2744,"Ġdaily":2745,"ows":2746,"ĠGra":2747,"ĠAlthough":2748,"lation":2749,"Ġoverall":2750,"Ġguide":2751,"ened":2752,"Ġencoura":2753,"Ġresponse":2754,"Ġnegative":2755,"Ġissue":2756,"Ġviol":2757,"Ġprofessional":2758,"isions":2759,"ĠSchool":2760,"Ġdetermine":2761,"ĠArt":2762,"ipl":2763,"ext":2764,"rench":2765,"Ġadvant":2766,"Ġsmo":2767,"ĠOur":2768,"IN":2769,"Ġorigin":2770,"Ġexpress":2771,"Ġ198":2772,"Ġpan":2773,"joy":2774,"rial":2775,"ĠUse":2776,"Ġlooking":2777,"hol":2778,"Ġlonger":2779,"uted":2780,"ding":2781,"Ġtypically":2782,"Ġrecent":2783,"Ġdevices":2784,"Ġpict":2785,"Ġprevious":2786,"Ġsecurity":2787,"cell":2788,"Ġnormal":2789,"ground":2790,"13":2791,"Ġwood":2792,"Ġbring":2793,"Ġupon":2794,"ĠSec":2795,"Ġprovided":2796,"ĠReg":2797,"ĠJapan":2798,"Ġthing":2799,"bo":2800,"atives":2801,"ĠPart":2802,"ĠInc":2803,"Ġdistrib":2804,"ĠNot":2805,"Ġdiseases":2806,"Ġpoints":2807,"itor":2808,"Ġminim":2809,"Ġsomeone":2810,"aries":2811,"Ġacid":2812,"Ġinj":2813,"Ġprop":2814,"Ġyet":2815,"org":2816,"Ġhalf":2817,"eration":2818,"ĠOther":2819,"Ġvit":2820,"Ġaware":2821,"Ġappl":2822,"Ġutil":2823,"Ġdeveloping":2824,"Ġfarm":2825,"Ġalmost":2826,"Ġcra":2827,"Ġlat":2828,"ricult":2829,"Ġimage":2830,"Ġshown":2831,"itute":2832,"ĠFirst":2833,"Ġgenerally":2834,"Ġprocesses":2835,"ĠWorks":2836,"Ġdeb":2837,"Ġleading":2838,"Ġsearch":2839,"Ġitself":2840,"Ġnetwork":2841,"Ġwaste":2842,"artment":2843,"Ġprep":2844,"Ġappropri":2845,"ster":2846,"Ġearth":2847,"Ġextra":2848,"Ġmovement":2849,"Ġexc":2850,"irm":2851,"ober":2852,"Ġaverage":2853,"Ġcultural":2854,"Ġcover":2855,"Ġbur":2856,"Ġcreating":2857,"Ġcontains":2858,"ĠAI":2859,"Ġexplore":2860,"Ġeasily":2861,"asons":2862,"Ġprograms":2863,"Ġsolar":2864,"Ġec":2865,"Ġsimply":2866,"urch":2867,"Ġsomet":2868,"Ġgard":2869,"Ġbab":2870,"imately":2871,"Ġpatient":2872,"Ġapplication":2873,"Ġdy":2874,"Ġtakes":2875,"Ġtowards":2876,"Th":2877,"Ġled":2878,"Ġgetting":2879,"Ġthinking":2880,"Ġsound":2881,"empt":2882,"Ġthreat":2883,"Ġveget":2884,"tery":2885,"Ġsix":2886,"Ġteachers":2887,"Ġextreme":2888,"minist":2889,"Ġvalues":2890,"Ġâ":2891,"Ġsection":2892,"ĠAc":2893,"ON":2894,"dom":2895,"Ġgrowing":2896,"Ġstra":2897,"Ġ24":2898,"Ġcalcul":2899,"Ġteaching":2900,"ana":2901,"estern":2902,"care":2903,"________":2904,"umb":2905,"Ġtrue":2906,"Ġparticularly":2907,"ĠPar":2908,"Ġrelative":2909,"Ġpages":2910,"Ġaltern":2911,"know":2912,"Ġreflect":2913,"Ġsqu":2914,"ech":2915,"ipment":2916,"Ġdocument":2917,"Ġsurv":2918,"arily":2919,"ension":2920,"Ġseries":2921,"Ġtax":2922,"Ġschools":2923,"Ġir":2924,"Ġconcent":2925,"book":2926,"Ġgreater":2927,"Ġgame":2928,"Ġvacc":2929,"Ġheav":2930,"na":2931,"olic":2932,"izes":2933,"Ġdoing":2934,"ilos":2935,"ades":2936,"rim":2937,"ucle":2938,"IS":2939,"Ġproviding":2940,"Ġenjoy":2941,"Ġclaim":2942,"Ġstay":2943,"Ġweb":2944,"erson":2945,"ĠTechn":2946,"Ġsometimes":2947,"Ġslow":2948,"ĠGl":2949,"Ġproduced":2950,"rehens":2951,"Ġcompanies":2952,"Ġdemonst":2953,"Ġexercise":2954,"Ġaccept":2955,"Ġbelieve":2956,"Ġindepend":2957,"Ġinvolved":2958,"fort":2959,"itable":2960,"Ġchoose":2961,"ĠKing":2962,"ription":2963,"200":2964,"Ã©":2965,"ĠII":2966,"Ġsolution":2967,"Ġinfluence":2968,"ĠChina":2969,"ĠBritish":2970,"ĠOver":2971,"Ġsupply":2972,"ĠMy":2973,"ĠHis":2974,"Ġtree":2975,"Ġtur":2976,"Ġdecre":2977,"Ġanimal":2978,"Ġrequires":2979,"ada":2980,"Ġlack":2981,"Ġacad":2982,"Ġtit":2983,"Ġdiv":2984,"Ġquickly":2985,"ĠUnder":2986,"play":2987,"Ġcapt":2988,"issions":2989,"ched":2990,"Ġchallenges":2991,"Ġinfection":2992,"ĠState":2993,"Ġprogress":2994,"Ġeye":2995,"Ġfram":2996,"Ġliterature":2997,"Ġproced":2998,"Ġcivil":2999,"Ġbill":3000,"term":3001,"Ġforce":3002,"Ġinvestig":3003,"izations":3004,"Ġdry":3005,"rical":3006,"Ġremov":3007,"Ġrout":3008,"Ġcame":3009,"lection":3010,"ĠMin":3011,"Ġscientists":3012,"ĠAustral":3013,"ologies":3014,"itch":3015,"Ġwebsite":3016,"aly":3017,"ĠNow":3018,"Ġoffers":3019,"ony":3020,"Ġdiabetes":3021,"ban":3022,"Ġinside":3023,"Ġpractices":3024,"Ġmess":3025,"Ġwild":3026,"ĠChild":3027,"Ġbuilt":3028,"):":3029,"lands":3030,"ĠAut":3031,"Ġcontinue":3032,"Ġful":3033,"ĠWill":3034,"rs":3035,"Ġscientific":3036,"Ġfast":3037,"istry":3038,"60":3039,"Ġserious":3040,"Ġhumans":3041,"Ġassign":3042,"Ġancient":3043,"Ġprotein":3044,"Ġtable":3045,"itude":3046,"gn":3047,"Ġinternational":3048,"ister":3049,"Ġmole":3050,"ror":3051,"Ġspeed":3052,"ĠPres":3053,"olar":3054,"cohol":3055,"ancy":3056,"isms":3057,"ino":3058,"Ġdang":3059,"Ġbegan":3060,"iring":3061,"Ġautom":3062,"ĠLet":3063,"orpor":3064,"Ġaff":3065,"ĠHistory":3066,"bre":3067,"Ġuseful":3068,"Ġconnect":3069,"Ġadapt":3070,"Ġsil":3071,"Ġcomponents":3072,"Ġcontext":3073,"Ġwarm":3074,"ider":3075,"Ġstyle":3076,"iter":3077,"Ġincluded":3078,"vert":3079,"ĠMod":3080,"Ġstarted":3081,"Ġoriginal":3082,"Ġtopics":3083,"Ġang":3084,"Ġcode":3085,"Ġdecision":3086,"new":3087,"avor":3088,"Ġcard":3089,"Ġprior":3090,"AN":3091,"formation":3092,"Ġyourself":3093,"Ġcompared":3094,"Ġdoesn":3095,"Ġcit":3096,"Ġtransport":3097,"rogen":3098,"ĠSim":3099,"ĠEssay":3100,"Ġstrategies":3101,"ellig":3102,"Ġsteps":3103,"ĠEd":3104,"Ġfoot":3105,"Ġobtain":3106,"li":3107,"Ġball":3108,"Ġnovel":3109,"Ġpack":3110,"Ġreve":3111,"Ġexact":3112,"Ġhighly":3113,"anks":3114,"Ġefficient":3115,"ĠFin":3116,"Ġdemand":3117,"Ġleaders":3118,"mb":3119,"Ġadditional":3120,"ls":3121,"Ġbeginning":3122,"Ġvisit":3123,"Ġ197":3124,"ift":3125,"udd":3126,"Ġtook":3127,"Ġequipment":3128,"Ġdou":3129,"ĠTw":3130,"Ġlength":3131,"Ġstrength":3132,"Ġ+":3133,"Ġcentral":3134,"Ġago":3135,"Ġbeaut":3136,"Ġ#":3137,"Ġtiss":3138,"Ġmother":3139,"Ġcoun":3140,"Ġproperties":3141,"Ġbuy":3142,"Ġhar":3143,"Ġ2020":3144,"ĠSm":3145,"ĠDuring":3146,"Ġappropriate":3147,"inct":3148,"Ġwall":3149,"Ġoutside":3150,"Ġspeak":3151,"Ġmachine":3152,"OR":3153,"Ġcommonly":3154,"Ġnight":3155,"Ġblock":3156,"isc":3157,"Ġpoor":3158,"ĠAg":3159,"inks":3160,"ĠAddition":3161,"Ġfib":3162,"Ġsevere":3163,"Ġfit":3164,"ellow":3165,"Ġcross":3166,"Ġintroduction":3167,"hemat":3168,"Ġvisual":3169,"Ġsn":3170,"come":3171,"Ġpapers":3172,"EN":3173,"Ġstatement":3174,"itect":3175,"Ġcommit":3176,"Ġdirectly":3177,"Ġthird":3178,"ius":3179,"Ġcosts":3180,"Ġcred":3181,"Ġcry":3182,"Ġsugar":3183,"ederal":3184,"Ġveh":3185,"rought":3186,"itis":3187,"Ġbad":3188,"Ġadded":3189,"Ġanx":3190,"Ġseem":3191,"ĠSystem":3192,"my":3193,"Ġinnov":3194,"Ġusers":3195,"Ġclin":3196,"ĠCount":3197,"Ġtrees":3198,"Ġteeth":3199,"ĠJan":3200,"Ġleaves":3201,"Ġexpos":3202,"iples":3203,"Ġtherapy":3204,"Ġforest":3205,"Ġbroad":3206,"Ġattempt":3207,"oes":3208,"Ġactive":3209,"ĠDay":3210,"ĠTrans":3211,"Ġbase":3212,"Ġinterp":3213,"ords":3214,"Ġadj":3215,"IC":3216,"idge":3217,"Ġbit":3218,"ervation":3219,"Ġorganization":3220,"Ġtarget":3221,"Ġhot":3222,"Ġinstead":3223,"Ġoptim":3224,"Ġlargest":3225,"oud":3226,"amed":3227,"right":3228,"Ġmix":3229,"ned":3230,"Ġlate":3231,"Ġformat":3232,"Ġinstall":3233,"Ġones":3234,"Ġdevice":3235,"Ġpolicy":3236,"Ġspir":3237,"Ġtri":3238,".)":3239,"Ġsample":3240,"Ġlo":3241,"ĠPa":3242,"Ġtend":3243,"ĠEducation":3244,"Ġbehind":3245,"ĠWorkshe":3246,"Ġfriends":3247,"cks":3248,"pid":3249,"Ġcapac":3250,"uries":3251,"Ġinvolves":3252,"asks":3253,"25":3254,"Ġbreat":3255,"ĠFrench":3256,"40":3257,"Ġsituation":3258,"uge":3259,"Ġprojects":3260,"ĠAlso":3261,"Ġconstruction":3262,"Ġshape":3263,"Ġcollege":3264,"ĠExam":3265,"ha":3266,"eding":3267,"Ġeating":3268,"Ġplat":3269,"Ġcommunities":3270,"ED":3271,"ula":3272,"oming":3273,"Ġnutri":3274,"Ġunit":3275,"iot":3276,"Ġast":3277,"Ġexpect":3278,"Ġfa":3279,"Ġchoice":3280,"ĠBec":3281,"Ġimages":3282,"Ġlegal":3283,"Ġgames":3284,"Ġegg":3285,"Ġquite":3286,"ĠEach":3287,"Ġprice":3288,"Ġ*":3289,"ran":3290,"--":3291,"uments":3292,"Ġiron":3293,"Ġperfect":3294,"Ġlarger":3295,"Ġ21":3296,"ĠDevelop":3297,"uous":3298,"ĠAnt":3299,"Ġgoal":3300,"back":3301,"pite":3302,"Ġofficial":3303,"equ":3304,"hel":3305,"Ġ40":3306,"ĠSw":3307,"Ġcool":3308,"Ġmom":3309,"Ġcapital":3310,"Ġfile":3311,"osy":3312,"Ġreported":3313,"Ġattack":3314,"Ġsea":3315,"Ġlabor":3316,"Ġcamp":3317,"ĠAfrica":3318,"Ġprotection":3319,"Ġcele":3320,"ief":3321,"Ġtherefore":3322,"yond":3323,"Ġbehavi":3324,"Ġuser":3325,"ĠIndian":3326,"iable":3327,"Ġdoctor":3328,"anish":3329,"Ġcateg":3330,"Ġemp":3331,"Ġcomprehens":3332,"ĠChar":3333,"ĠGree":3334,"Ġminutes":3335,"ĠAug":3336,"oly":3337,"Ġlimited":3338,"ĠEuropean":3339,"Ġdifferences":3340,"Ġfeet":3341,"'re":3342,"Ġreasons":3343,"Ġstage":3344,"time":3345,"ĠAfrican":3346,"Ġcold":3347,"amb":3348,"Ġreach":3349,"Ġhair":3350,"Ġbirth":3351,"wise":3352,"att":3353,"ĠHigh":3354,"Ġadults":3355,"hest":3356,"ields":3357,"osition":3358,"Ġhor":3359,"gy":3360,"lies":3361,"Ġnation":3362,"Ġmodels":3363,"ĠÐ":3364,"Ġitems":3365,"Ġfunctions":3366,"ached":3367,"Ġgives":3368,"ĠMon":3369,"axim":3370,"water":3371,"ĠYork":3372,"vention":3373,"omy":3374,"Ġelement":3375,"Ġdark":3376,"Ġlocated":3377,"Ġpromot":3378,"ĠDi":3379,"Ġcollection":3380,"ĠSince":3381,"imin":3382,"Ġgold":3383,"lamm":3384,"Ġadop":3385,"Ġimmedi":3386,"Ġmiddle":3387,"Ġcommunic":3388,"ibrary":3389,"uit":3390,"Ġteacher":3391,"ĠPeople":3392,"Ġoptions":3393,"Ġult":3394,"iar":3395,"Ġtests":3396,"cean":3397,"ĠHer":3398,"resh":3399,"vest":3400,"Ġstru":3401,"Ġrich":3402,"Ġresponsible":3403,"wh":3404,"Ġseason":3405,"ensity":3406,"ĠEl":3407,"Ġacademic":3408,"Ġconcl":3409,"Ġinsp":3410,"Ġnutrit":3411,"Ġdat":3412,"rig":3413,"Ġlesson":3414,"Ġpurch":3415,"Ġcontrast":3416,"iles":3417,"uth":3418,"ĠGet":3419,"set":3420,"Ġgoals":3421,"Ġmeasures":3422,"Ġphilos":3423,"Ġrates":3424,"Ġrob":3425,"Ġhistorical":3426,"Ġtesting":3427,"Ġsurround":3428,"ĠHel":3429,"Ġconflic":3430,"fficient":3431,"Ġgraph":3432,"gency":3433,"Ġsolutions":3434,"ĠBu":3435,"ĠStudents":3436,"Ġestim":3437,"Ġdefinition":3438,"Ġmemory":3439,"Ġcompar":3440,"Ġsigns":3441,"Ġbalance":3442,"Ġinitial":3443,"Ġnucle":3444,"Ġalcohol":3445,"Ġassist":3446,"ĠWater":3447,"Ġsus":3448,"Ġjo":3449,"Ġpowerful":3450,"Ġrules":3451,"Ġlines":3452,"mission":3453,"Ġestablish":3454,"ĠAnother":3455,"ops":3456,"ĠFree":3457,"inese":3458,"ĠPhys":3459,"Ġbecomes":3460,"Ġestablished":3461,"Ġcolon":3462,"Ġaspects":3463,"head":3464,"ĠMus":3465,"Ġeconomy":3466,"Ġroad":3467,"Ġhost":3468,"Ġpatterns":3469,"Ġproperty":3470,"cles":3471,"Ġagree":3472,"uman":3473,"standing":3474,"Ġdeal":3475,"Ġconstant":3476,"Ġagricult":3477,"Ġbacteria":3478,"odies":3479,"ĠRel":3480,"rong":3481,"uary":3482,"Ġder":3483,"Ġfight":3484,"Ġnote":3485,"Ġhyp":3486,"Ġconsequ":3487,"Ġthus":3488,"Ġeverything":3489,"alking":3490,"Ġeveryone":3491,"Ġfamilies":3492,"Ġthous":3493,"Ġdepend":3494,"Ġexperiences":3495,"Ġfra":3496,"Ġhands":3497,"Ġpoly":3498,"overy":3499,"Ġrequirements":3500,"Ġqual":3501,"Ġlocation":3502,"ĠClass":3503,"Ġoccurs":3504,"Ġ2018":3505,"Ġfinal":3506,"Ġhabit":3507,"Ġmob":3508,"Ġaffected":3509,"pper":3510,"Ġeyes":3511,"edia":3512,"Ġscreen":3513,"Ġcharacteristics":3514,"rates":3515,"Ġdate":3516,"ĠGerman":3517,"Ġ22":3518,"Ġmis":3519,"Ġtalk":3520,"Ġsch":3521,"elt":3522,"AC":3523,"Ġweather":3524,"Ġobjects":3525,"Ġmilitary":3526,"ĠEven":3527,"illing":3528,"Ġshap":3529,"Ġsold":3530,"Ġrock":3531,"oe":3532,"ĠApr":3533,"Ġweeks":3534,"Ġeducational":3535,"Ġimag":3536,"ĠRuss":3537,"ĠBi":3538,"Ġaccom":3539,"where":3540,"Ġfuel":3541,"Ġdetails":3542,"ĠRed":3543,"atur":3544,"ception":3545,"ĠHar":3546,"Ġanxiety":3547,"phas":3548,"sect":3549,"Ġrapid":3550,"Ġcarry":3551,"wide":3552,"ĠSocial":3553,"Ġwa":3554,"Ġsuccessful":3555,"Ġaccur":3556,"hesis":3557,"Ġdegree":3558,"Ġresid":3559,"ests":3560,"Ġevalu":3561,"tical":3562,"âĢĿ.":3563,"ĠOct":3564,"Ġthesis":3565,"Ġadminist":3566,"Ġsitu":3567,"Ġmetal":3568,"Ġalthough":3569,"bit":3570,"Ġbul":3571,"Ġgot":3572,"Ġopportunities":3573,"ĠDef":3574,"Ġvia":3575,"rome":3576,"lier":3577,"Ġprobably":3578,"Ġrecommend":3579,"ĠBecause":3580,"IT":3581,"Ġpen":3582,"Ġcontroll":3583,"Ġsoon":3584,"Ġborn":3585,"ĠOnce":3586,"Ġpow":3587,"anc":3588,"estic":3589,"Ġpregn":3590,"Ġreceive":3591,"Ġremains":3592,"We":3593,"abilities":3594,"Ġsequ":3595,"bor":3596,"Ġresource":3597,"ĠChe":3598,"Ġspeech":3599,"Ġperspect":3600,"Ġroom":3601,"Ġstories":3602,"ĠJu":3603,"Ġteach":3604,"ĠInternational":3605,"Ġdefined":3606,"Ġkid":3607,"ĠThen":3608,"Ġlaws":3609,"ĠQuest":3610,"Ġinstruct":3611,"pan":3612,"Ġking":3613,"Ġbenefit":3614,"ĠProf":3615,"Ġplaces":3616,"This":3617,"ĠFl":3618,"Ġtask":3619,"22":3620,"Ġameric":3621,"Ġrise":3622,"Ġhealthcare":3623,"oration":3624,"Ġvirt":3625,"Ġfather":3626,"Ġfront":3627,"ĠInstitute":3628,"iences":3629,"ogen":3630,"Ġdisorder":3631,"Ġvary":3632,"Ġconvers":3633,"iate":3634,"ĠCommun":3635,"Ġund":3636,"Ġbaby":3637,"Ġrat":3638,"agraph":3639,"Ġenhance":3640,"Ġstandards":3641,"Ġsignificantly":3642,"Ġ2017":3643,"Ġworksheet":3644,"Ġopportunity":3645,"ingu":3646,"Ġplatform":3647,"ĠUsing":3648,"undred":3649,"yd":3650,"Ġmount":3651,"ulate":3652,"Ġactions":3653,"Ġjoint":3654,"Ġprofession":3655,"Ġconcepts":3656,"ulations":3657,"Ġ2019":3658,"ica":3659,"ĠProg":3660,"Ġrain":3661,"roduction":3662,"Ġsect":3663,"ocks":3664,"Ġrespond":3665,"Ġcenter":3666,"ygen":3667,"ĠJew":3668,"Ġjud":3669,"Ġdescribed":3670,"Ġfactor":3671,"ching":3672,"Ġreducing":3673,"oice":3674,"orage":3675,"Ġintellig":3676,"Ġacqu":3677,"Ġdecisions":3678,"ĠTherefore":3679,"Ġeffectively":3680,"ĠExpl":3681,"Ġcontribute":3682,"Ġequal":3683,"Ġgarden":3684,"rees":3685,"Ġtrade":3686,"Ġarchitect":3687,"ky":3688,"son":3689,"ses":3690,"Ġing":3691,"Ġrare":3692,"Ġefficiency":3693,"Ġargument":3694,"Ġcou":3695,"Ġconsumption":3696,"Ġbelief":3697,"Ġgender":3698,"ube":3699,"Ġbasis":3700,"ĠSpe":3701,"Ġprivate":3702,"Ġillness":3703,"acters":3704,"ĠServ":3705,"ĠRem":3706,"erences":3707,"ille":3708,"mary":3709,"ste":3710,"www":3711,"Ġsett":3712,"irection":3713,"Ġletter":3714,"ĠBlack":3715,"Ġmaxim":3716,"umn":3717,"Ġstri":3718,"ĠJust":3719,"more":3720,"ĠSub":3721,"Ġ23":3722,"Ġimmune":3723,"Ġnumerous":3724,"mosp":3725,"80":3726,"Ġheld":3727,"Ġgradu":3728,"Ġlimit":3729,"enge":3730,"Ġdisplay":3731,"ancing":3732,"ios":3733,"Ġillust":3734,"Ġexpected":3735,"Ġvital":3736,"AL":3737,"ĠLearning":3738,"Ġliqu":3739,"arian":3740,"Ġtown":3741,"ognitive":3742,"ĠAdditionally":3743,"Ġcollabor":3744,"Ġdead":3745,"Ġisn":3746,"Ġtips":3747,"ĠGreat":3748,"Ġsustainable":3749,"inding":3750,"Ġmention":3751,"Ġemotional":3752,"Ġeasier":3753,"Ġexcess":3754,"Ġjournal":3755,"Ġbeyond":3756,"Ġscale":3757,"\".":3758,"VID":3759,"ees":3760,"Ġabsor":3761,"St":3762,"Ġexec":3763,"ĠData":3764,"Ġcapacity":3765,"Ġtechnologies":3766,"Ġapplied":3767,"Ġplanning":3768,"ĠNews":3769,"Ġenter":3770,"raft":3771,"ptember":3772,"Ġstrugg":3773,"Ġmal":3774,"being":3775,"Ġ194":3776,"Ġdivid":3777,"ĠCur":3778,"Ġroot":3779,"ĠMarch":3780,"iforn":3781,"urance":3782,"ĠTheir":3783,"ĠBar":3784,"Ġrelationships":3785,"Ġinstance":3786,"sec":3787,"lim":3788,"rief":3789,"Ġnames":3790,"aste":3791,"Ġinstru":3792,"Ġdecl":3793,"Ġremember":3794,"Ġrisks":3795,"ĠPat":3796,"Ġanti":3797,"ĠWest":3798,"Ġsmaller":3799,"ĠTH":3800,"Ġbott":3801,"ĠInter":3802,"Ġreligious":3803,"Ġplans":3804,"Ġalg":3805,"Ġprocessing":3806,"aught":3807,"rec":3808,"ĠPlan":3809,"uable":3810,"Ġcam":3811,"outhern":3812,"Ġorganizations":3813,"ball":3814,"ternal":3815,"Ġfair":3816,"ĠBo":3817,"Ġcompletely":3818,"Ġexcell":3819,"life":3820,"Ġmuscle":3821,"odes":3822,"Ġpet":3823,"Ġpredict":3824,"PA":3825,"ĠStep":3826,"Ġtransform":3827,"Ġswe":3828,"Ġpiece":3829,"Ġworkers":3830,"Ġwond":3831,"ulum":3832,"bl":3833,"Ġemphas":3834,"ophy":3835,"ĠEvery":3836,"Ġplastic":3837,"Ġstim":3838,"Ġtasks":3839,"ĠDec":3840,"Ġclassroom":3841,"Ġsummer":3842,"Ġmanage":3843,"Ġstructures":3844,"cil":3845,"Ġcitiz":3846,"Ġload":3847,"ĠChinese":3848,"Ġincome":3849,"Ġ2016":3850,"Ġattract":3851,"Ġfruit":3852,"Ġsouth":3853,"uk":3854,"Ġhttps":3855,"Ġcharacters":3856,"Ġtou":3857,"ira":3858,"Ġtechnique":3859,"Ġdrugs":3860,"ided":3861,"Ġlost":3862,"Ġcommer":3863,"Ġmiss":3864,"ĠCenter":3865,"ĠElect":3866,"rm":3867,"Ġsetting":3868,"orthern":3869,"Ġefforts":3870,"ĠPol":3871,"Ġplanet":3872,"Ġ--":3873,"Ġrefers":3874,"Ġwhose":3875,"agram":3876,"Ġbox":3877,"Ġfear":3878,"ifornia":3879,"Ġtrying":3880,"ogle":3881,"elines":3882,"Ġspirit":3883,"ero":3884,"Ġgoes":3885,"Ġolder":3886,"Ġtransfer":3887,"ĠLat":3888,"zz":3889,"ype":3890,"orial":3891,"Ġcurrently":3892,"Ġincorpor":3893,"ĠJes":3894,"ĠDon":3895,"Ġhundred":3896,"Ġfresh":3897,"anguages":3898,"Ġvict":3899,"Ġbeg":3900,"Ġpresence":3901,"EC":3902,"Ġapprox":3903,"ĠJour":3904,"plications":3905,"Ġcelebr":3906,"Ġresistance":3907,"bal":3908,"Ġworth":3909,"rupt":3910,"Ġanything":3911,"Ġsave":3912,"ĠConst":3913,"Ġdetect":3914,"ĠVal":3915,"med":3916,"year":3917,"Ġconstruct":3918,"mitted":3919,"Ġprinciples":3920,"Ġblue":3921,"ĠMat":3922,"ĠTest":3923,"imens":3924,"Ġcycle":3925,"Ġreference":3926,"Ġgir":3927,"Ġindustrial":3928,"ceed":3929,"Ġincreases":3930,"Ġrot":3931,"used":3932,"Ġupd":3933,"Ġdiscover":3934,"Ġdepending":3935,"Ġ60":3936,"Ġexposure":3937,"Ġdownload":3938,"Ġhope":3939,"Ġcontract":3940,"ĠSee":3941,"known":3942,"Ġrevolution":3943,"iers":3944,"Ġinteresting":3945,"Ġwon":3946,"Ġord":3947,"oses":3948,"Ġadjust":3949,"ares":3950,"Ġmouth":3951,"ST":3952,"sp":3953,"Ġ2015":3954,"Ġreduced":3955,"hors":3956,"ĠJune":3957,"Ġappe":3958,"Ġsites":3959,"ĠEngland":3960,"Ġfemale":3961,"Ġhosp":3962,"Ġarticles":3963,"Ġfert":3964,"Ġgenetic":3965,"ĠLearn":3966,"23":3967,"Ġ2014":3968,"ifically":3969,"haps":3970,"Ġelse":3971,"Ġdisorders":3972,"iful":3973,"Ġwidely":3974,"ĠUK":3975,"Ġpromote":3976,"ĠIts":3977,"Ġnorth":3978,"ashing":3979,"ĠAugust":3980,"force":3981,"iance":3982,"ibly":3983,"change":3984,"Ġfix":3985,"Ġfundam":3986,"Ġexpert":3987,"ocol":3988,"Ġdiscovered":3989,"ĠBook":3990,"ĠFeb":3991,"It":3992,"ĠSur":3993,"Ġformed":3994,"Ġfollowed":3995,"ĠApril":3996,"Ġversion":3997,"Ġoxygen":3998,"Ġdescribe":3999,"Ġrule":4000,"ĠBra":4001,"Ġnarr":4002,"Ġbusinesses":4003,"Ġweak":4004,"Ġwoman":4005,"ĠVir":4006,"onds":4007,"Ġdirection":4008,"ructure":4009,"Ġapply":4010,"Ġ2013":4011,"ĠDNA":4012,"Ġmonit":4013,"Ġfriend":4014,"ĠÂ·":4015,"que":4016,"Ġreceived":4017,"Ġ196":4018,"Ġvolume":4019,"Ġagg":4020,"ĠSch":4021,"ĠTod":4022,"ĠAmericans":4023,"Ġinternet":4024,"Ġeffort":4025,"Ġwinter":4026,"works":4027,"Ġassessment":4028,"Ġstatus":4029,"ĠDepartment":4030,"ĠCanada":4031,"IV":4032,"Ġbrought":4033,"Ġmo":4034,"ĠCOVID":4035,"Ġatmosp":4036,"Ġelectrical":4037,"Ġhighlight":4038,"Ġmathemat":4039,"Ġadvanced":4040,"Ġdistance":4041,"ĠÃ":4042,"Ġemissions":4043,"Ġlayer":4044,"Ġalternative":4045,"Ġdiss":4046,"Ġten":4047,"Ġbirds":4048,"ĠOrgan":4049,"Ġrelevant":4050,"aled":4051,"Ġmap":4052,"can":4053,"Ġtrig":4054,"Ġtrust":4055,"Ġtrial":4056,"Ġphen":4057,"edom":4058,"Ġnamed":4059,"Ġsynt":4060,"Ġfrequently":4061,"Ġoption":4062,"Ġvoc":4063,"house":4064,"Ġnotes":4065,"ĠWilliam":4066,"Ġexpand":4067,"iveness":4068,"Â°":4069,"Ġleave":4070,"Ġsentence":4071,"Ġice":4072,"ĠEnvironment":4073,"Ġpric":4074,"Ġparagraph":4075,"Ġidentified":4076,"Ġsteel":4077,"ĠMake":4078,"Ġstorage":4079,"Ġremove":4080,"Ġfamous":4081,"Ġhon":4082,"df":4083,"ĠAbout":4084,"Ġdivers":4085,"ĠChildren":4086,"ĠCor":4087,"ĠInf":4088,"ĠCalifornia":4089,"Ġelectricity":4090,"Ġseems":4091,"Ġson":4092,"Ġreaction":4093,"ĠWho":4094,"Ġchapter":4095,"ĠWhich":4096,"rete":4097,"Ġbackground":4098,"ĠWriting":4099,"aur":4100,"ĠAv":4101,"Ġdogs":4102,"24":4103,"Ġdepression":4104,"ico":4105,"Ġfilm":4106,"nds":4107,"Ġregions":4108,"Ġopin":4109,"Ġfully":4110,"Ġdistinct":4111,"ham":4112,"cember":4113,"ought":4114,"Ġ2021":4115,"poses":4116,"Ġbound":4117,"Ġconnected":4118,"Ġoperations":4119,"Ġpul":4120,"Ġmid":4121,"rew":4122,"Ġextremely":4123,"mat":4124,"Ġprepar":4125,"ĠAustralia":4126,"Ġmoment":4127,"Ġhous":4128,"Ġtox":4129,"Ġhun":4130,"Ġmember":4131,"Ġcoast":4132,"Ġrecommended":4133,"RE":4134,"ĠNet":4135,"ĠRoman":4136,"Ġspect":4137,"Ġwel":4138,"ificial":4139,"ĠJesus":4140,"cast":4141,"Ġrepl":4142,"Ġtour":4143,"ĠSeptember":4144,"rie":4145,"Ġsand":4146,"Ġpicture":4147,"ulf":4148,"ulated":4149,"Ġemail":4150,"Ġforces":4151,"riculum":4152,"ĠAssoci":4153,"Ġclinical":4154,"ĠFurther":4155,"Ġconnection":4156,"Ġtissue":4157,"Ġwent":4158,"Ġfacts":4159,"ilit":4160,"Ġbed":4161,"raw":4162,"Ġchanged":4163,"Ġexisting":4164,"ĠChristian":4165,"Ġglass":4166,"Ġproperly":4167,"oma":4168,"rote":4169,"Ġtim":4170,"Ġstarting":4171,"ĠSpanish":4172,"Ġnearly":4173,"rab":4174,"hab":4175,"lev":4176,"Ġmajority":4177,"ovember":4178,"Ġcreative":4179,"gypt":4180,"ĠCour":4181,"ference":4182,"Ġbillion":4183,"Ġevolution":4184,"Ġsolid":4185,"Ġconclusion":4186,"ĠSam":4187,"Ġregarding":4188,"ocr":4189,"Ġlett":4190,"Ġtooth":4191,"ĠThrough":4192,"iding":4193,"Ġ26":4194,"ĠFood":4195,"Ġideal":4196,"Ġcommercial":4197,"Ġwatch":4198,"ĠGovern":4199,"Ġ28":4200,"Ġstore":4201,"Ġmotor":4202,"Ġtemperatures":4203,"Ġthr":4204,"Ġgiving":4205,"Ġplays":4206,"Ġcombination":4207,"Ġgeneration":4208,"asive":4209,"cking":4210,"Ġden":4211,"Ġcore":4212,"Ġorganic":4213,"crib":4214,"ĠDiff":4215,"Ġalone":4216,"cious":4217,"iny":4218,"What":4219,"ĠMark":4220,"resp":4221,"ĠOb":4222,"Ġhappens":4223,"Ġexcellent":4224,"Ġ2012":4225,"Ġcomfort":4226,"Ġinfections":4227,"ĠJanuary":4228,"Ġexperts":4229,"SS":4230,"Ġnav":4231,"osystem":4232,"Ġnative":4233,"Ch":4234,"....":4235,"Ġ27":4236,"Ġallowing":4237,"Ġstrategy":4238,"ĠRiver":4239,"unction":4240,"ĠSupp":4241,"Ġready":4242,"Ġinflamm":4243,"enty":4244,"ĠProt":4245,"Ġlandsc":4246,"ĠGermany":4247,"Ġbecoming":4248,"uration":4249,"Ġmoving":4250,"Ġengineering":4251,"Ġtitle":4252,"Ġmig":4253,"che":4254,"ĠJuly":4255,"etry":4256,"opy":4257,"Ġded":4258,"urg":4259,"ĠBas":4260,"Ġexperiment":4261,"vious":4262,"ET":4263,"unch":4264,"ĠDav":4265,"Ġdistribution":4266,"Ġcopy":4267,"era":4268,"Ġhorm":4269,"Ġjourney":4270,"rick":4271,"cular":4272,"Ġanswers":4273,"Ġcomprehensive":4274,"ros":4275,"Ġboard":4276,"icip":4277,"Ġmedicine":4278,"ĠJournal":4279,"ags":4280,"Ġnutrients":4281,"la":4282,"iment":4283,"Ġlanguages":4284,"Ġprefer":4285,"Ġfields":4286,"Ġadvance":4287,"lam":4288,"Ġfederal":4289,"Ġcommand":4290,"ĠOut":4291,"ĠForm":4292,"Ġforward":4293,"Ġoutput":4294,"Ġplease":4295,"ford":4296,"nes":4297,"Ġrepe":4298,"Ġhighest":4299,"umin":4300,"ressive":4301,"Ġpollution":4302,"Ġchronic":4303,"Ġfavor":4304,"90":4305,"otes":4306,"ĠLaw":4307,"Ġsexual":4308,"Ġmining":4309,"related":4310,"Ġseeds":4311,"Ġcoming":4312,"Ġchance":4313,"Ġserve":4314,"Ġsaw":4315,"ifying":4316,"Ġpresented":4317,"urt":4318,"part":4319,"erate":4320,"Ġasked":4321,"EM":4322,"Ġreferred":4323,"porary":4324,"Ġdatab":4325,"Ġmilk":4326,"Ġflex":4327,"Ġconsists":4328,"writ":4329,"ĠDown":4330,"Ġvaluable":4331,"Ġchallenge":4332,"ĠWeb":4333,"Ġinfluen":4334,"olid":4335,"Ġvision":4336,"AM":4337,"Ġreports":4338,"Ġurban":4339,"Ġmotiv":4340,"Ġpractical":4341,"ondon":4342,"Ġshall":4343,"Ġrelatively":4344,"ara":4345,"lin":4346,"igen":4347,"Ġcrus":4348,"omb":4349,"Ġantib":4350,"ping":4351,"zing":4352,"Ġbelieved":4353,"Ġinternal":4354,"isation":4355,"Ġhom":4356,"Ġplaced":4357,"Ġchanging":4358,"char":4359,"Ġinsect":4360,"comes":4361,"ĠPublic":4362,"Ġbran":4363,"semb":4364,"Ġ2010":4365,"Ġclasses":4366,"Ġmale":4367,"onic":4368,"lick":4369,"Ġinvolve":4370,"ĠTop":4371,"iant":4372,"ĠST":4373,"Ġrecy":4374,"bra":4375,"Ġrecently":4376,"Ġkil":4377,"Ġresulting":4378,"ama":4379,"ĠFind":4380,"Ġcalc":4381,"ĠPresident":4382,"ographic":4383,"ĠMath":4384,"Ġdynam":4385,"Ġsuitable":4386,"Ġexactly":4387,"ĠOctober":4388,"ĠMex":4389,"Ġvitamin":4390,"ictionary":4391,"AD":4392,"alysis":4393,"Ġviolence":4394,"Ġobserved":4395,"ieties":4396,"tes":4397,"Ġconcerns":4398,"cont":4399,"Ġoccup":4400,"Ġstaff":4401,"Ġallowed":4402,"ĠToday":4403,"Ġmag":4404,"Ġcausing":4405,"Ġdigest":4406,"anging":4407,"Ġmiles":4408,"abul":4409,"Ġsituations":4410,"see":4411,"Ġtrad":4412,"Ġfindings":4413,"Ġliquid":4414,"efore":4415,"antic":4416,"Äģ":4417,"Ġbone":4418,"Ġreality":4419,"Ġeight":4420,"Ġwrong":4421,"Ġhelping":4422,"Ġdiverse":4423,"hetic":4424,"Ġhuge":4425,"Ð¾":4426,"Ġcognitive":4427,"ĠWhere":4428,"Ġreader":4429,"Ġinput":4430,"ĠSk":4431,"Ġearlier":4432,"Ġnothing":4433,"Ġtrack":4434,"ĠBen":4435,"DF":4436,"ĠDoes":4437,"rops":4438,"99":4439,"Ġinvestment":4440,"eria":4441,"ĠBr":4442,"ION":4443,"Ġrunning":4444,"ĠDevelopment":4445,"Ġ>":4446,"ĠPark":4447,"Ġtransl":4448,"alt":4449,"Ġinterpret":4450,"roy":4451,"ruary":4452,"ĠHuman":4453,"ken":4454,"Ġforeign":4455,"Ġfigure":4456,"Ġmanufacturing":4457,"Ġfeeling":4458,"board":4459,"ĠMet":4460,"ĠGreek":4461,"ĠBel":4462,"21":4463,"orith":4464,"ager":4465,"Ġcities":4466,"Ġneigh":4467,"Ġhappen":4468,"gery":4469,"78":4470,"Ġmanufacture":4471,"reet":4472,"ĠJapanese":4473,"Ġletters":4474,"iling":4475,"tenance":4476,"Ġpeace":4477,"ĠGreen":4478,"uing":4479,"Ġmut":4480,"Ġimproved":4481,"uff":4482,"eed":4483,"ux":4484,"Ġthick":4485,"âĢĿ,":4486,"Ġclick":4487,"ĠCity":4488,"Ġcareer":4489,"Ġseparate":4490,"Ġadvantages":4491,"Ġ2011":4492,"cel":4493,"Ġphase":4494,"Ġconsult":4495,"ĠEast":4496,"ĠMac":4497,"orge":4498,"Ðµ":4499,"Ġstar":4500,"RO":4501,"ĠCong":4502,"Ġadvantage":4503,"inter":4504,"Ġmaster":4505,"ĠColle":4506,"Ġcand":4507,"Ġexhib":4508,"Ġexperienced":4509,"Ġinvent":4510,"Ġintroduced":4511,"Ġtold":4512,"erals":4513,"Ġdied":4514,"Ġsuggests":4515,"Ġcoal":4516,"ĠDecember":4517,"Ġaid":4518,"Ġmainly":4519,"ĠPower":4520,"Ð°":4521,"ĠKnow":4522,"Ġheavy":4523,"Ġevol":4524,"Ġvegetables":4525,"Ġreligion":4526,"Ġcitizens":4527,"asion":4528,"ĠOp":4529,"ĠProfess":4530,"Ġeggs":4531,"Ġbattery":4532,"Ġunits":4533,"ĠPract":4534,"ĠTwo":4535,"Ġbodies":4536,"Ġdrive":4537,"Ġiniti":4538,"ĠVol":4539,"encies":4540,"ĠEngine":4541,"Ġleads":4542,"Ġconflict":4543,"ĠPost":4544,"Ġdiscussion":4545,"Ġpun":4546,"ĠMc":4547,"Ġreaders":4548,"gment":4549,"ĠSte":4550,"Ġbud":4551,"Ġspring":4552,"inated":4553,"Ġactual":4554,"Ġstream":4555,"Ġlearned":4556,"Ġreplace":4557,"Ġlung":4558,"Ġaffects":4559,"Ġunc":4560,"ĠTechnology":4561,"Ġbelong":4562,"Ġboost":4563,"do":4564,"Ġencourage":4565,"70":4566,"Ġdri":4567,"rum":4568,"Ġhttp":4569,"ĠCommon":4570,"Ġpurposes":4571,"ypes":4572,"iology":4573,"Ġidentity":4574,"rows":4575,"Ġmac":4576,"Ġbeautiful":4577,"pa":4578,"ĠProgram":4579,"Ġscen":4580,"Ġgets":4581,"Ġhousehold":4582,"wards":4583,"Ġawareness":4584,"26":4585,"Ġaccurate":4586,"Ġcarried":4587,"Ġgoods":4588,"Ġrelease":4589,"off":4590,"Ġconducted":4591,"ĠHouse":4592,"ĠThus":4593,"Ġapproximately":4594,"Ġthoughts":4595,"ĠAdd":4596,"Ġecosystem":4597,"tra":4598,"Ġshowed":4599,"ĠNovember":4600,"imal":4601,"ĠRec":4602,"Ġthousands":4603,"Ġfol":4604,"Ġcolors":4605,"Ġsong":4606,"ĠInternet":4607,"Ġhelpful":4608,"Ġseek":4609,"Ġhomes":4610,"ĠDesign":4611,"ipe":4612,"ishing":4613,"Ġsmart":4614,"order":4615,"Ġdegrees":4616,"35":4617,"Ġfine":4618,"ĠLess":4619,"Ġcredit":4620,"ĠWork":4621,"Ġsurvey":4622,"oul":4623,"Ġclos":4624,"Ġfruits":4625,"Ġriver":4626,"Ġcompare":4627,"ii":4628,"ĠLife":4629,"ĠArch":4630,"ĠPress":4631,"eters":4632,"ushing":4633,"Ġmist":4634,"ĠNum":4635,"Ġcreation":4636,"Ġcomponent":4637,"ĠGeneral":4638,"Ġtreated":4639,"Ġfinding":4640,"Ġhimself":4641,"Ġexternal":4642,"Ġburn":4643,"Ġlessons":4644,"bed":4645,"Ġexpression":4646,"Ġmel":4647,"Ġprofessionals":4648,"ĠProject":4649,"Ġanyone":4650,"ĠUp":4651,"ĠChapter":4652,"Ġfreedom":4653,"Ġpolicies":4654,"Ġsem":4655,"Ġdangerous":4656,"ĠEgypt":4657,"ĠStudy":4658,"enses":4659,"Ġwriter":4660,"ias":4661,"Ġwat":4662,"ĠWorksheets":4663,"Ġrace":4664,"Ġoperation":4665,"Ġyellow":4666,"Ġsav":4667,"Ġgod":4668,"Ġowners":4669,"Ġprimarily":4670,"Ġpartners":4671,"Ġintelligence":4672,"Ġple":4673,"Ġparticles":4674,"ĠAnsw":4675,"ĠFrance":4676,"Ġframew":4677,"ĠWhe":4678,"Ġwrote":4679,"gl":4680,"ĠRev":4681,"roid":4682,"Ġconsequences":4683,"abulary":4684,"Ġves":4685,"Ġensuring":4686,"yth":4687,"rest":4688,"key":4689,"ologists":4690,"Ġfrequency":4691,"Ġflowers":4692,"Ġformer":4693,"Ġdetailed":4694,"Ġlinked":4695,"Ġdental":4696,"Ġprocedure":4697,"anges":4698,"teries":4699,"EL":4700,"ĠBoth":4701,"roph":4702,"Ġkinds":4703,"Ġoffice":4704,"Ġassum":4705,"Ġimpacts":4706,"ĠFig":4707,"Ġphr":4708,"ĠPlease":4709,"ida":4710,"Ġsecure":4711,"Ġelimin":4712,"Ġradio":4713,"Ġperformed":4714,"'ll":4715,"cription":4716,"ta":4717,"Ġstraight":4718,"ĠCr":4719,"Ġindependent":4720,"Ġseven":4721,"ĠLike":4722,"Ġdepends":4723,"\",":4724,"ĠTreat":4725,"Ġdiam":4726,"Ġcompl":4727,"Ġfundamental":4728,"Ġheight":4729,"Ġ80":4730,"ĠPub":4731,"ĠLanguage":4732,"gra":4733,"ĠLondon":4734,"Ġappears":4735,"ĠBefore":4736,"Ġvul":4737,"Ġsquare":4738,"Ġauthors":4739,"Ġhyper":4740,"Ġlifest":4741,"Ġformation":4742,"ĠSecond":4743,"Ġspecifically":4744,"Ġmessage":4745,"des":4746,"Ġfaster":4747,"Ġpossess":4748,"ĠCollege":4749,"Ġalgorith":4750,"TS":4751,"ĠSum":4752,"Ġoutcomes":4753,"Ġvs":4754,"Ġinstit":4755,"Ġenglish":4756,"Ġoral":4757,"Ġexcept":4758,"Ġkill":4759,"Ġemployees":4760,"Ġfailure":4761,"Ġimmediately":4762,"Ġcovered":4763,"Ġperspective":4764,"rael":4765,"ĠMicro":4766,"Ġdiagnosis":4767,"isis":4768,"ald":4769,"Ġbrief":4770,"Ġtreatments":4771,"akespe":4772,"ĠHome":4773,"Ġlatest":4774,"Ġbottom":4775,"active":4776,"ndrome":4777,"Ġround":4778,"ament":4779,"ĠFact":4780,"ixt":4781,"Ġconver":4782,"Ġamounts":4783,"Ġmeat":4784,"ĠExper":4785,"ĠGoogle":4786,"Ġchart":4787,"Ġnurs":4788,"ĠIS":4789,"Ġspot":4790,"Ġfeelings":4791,"omas":4792,"ĠAD":4793,"OS":4794,"Ġunf":4795,"Ġpu":4796,"Ġdecades":4797,"Ġisol":4798,"Ġpron":4799,"ously":4800,"aign":4801,"Ġdram":4802,"PS":4803,"Ġreleased":4804,"Ġsector":4805,"28":4806,"Ġgene":4807,"à¥":4808,"ĠScient":4809,"irus":4810,"Ġcontinuous":4811,"ĠCounty":4812,"Ġemotions":4813,"Ġcontinues":4814,"Ġguidelines":4815,"Ġsolve":4816,"Ġslight":4817,"Ġmaintaining":4818,"ails":4819,"spe":4820,"Ġattrib":4821,"Ġmoist":4822,"Ġsyn":4823,"Ġfr":4824,"Ġimpl":4825,"ums":4826,"ĠGrade":4827,"Ġprompt":4828,"men":4829,"Ġtechnical":4830,"Ġpal":4831,"Ġdidn":4832,"Ġtruth":4833,"ĠId":4834,"Ġsort":4835,"nic":4836,"Ġphenomen":4837,"ND":4838,"Ġcircum":4839,"usive":4840,"rations":4841,"ĠSer":4842,"Ġroll":4843,"ĠUnderstanding":4844,"Ġunivers":4845,"ashington":4846,"rency":4847,"Ġbreast":4848,"Ġwalk":4849,"Ġsummary":4850,"enth":4851,"Ġoperating":4852,"Ġcounter":4853,"Ġbegins":4854,"Ġtherm":4855,"ĠEnergy":4856,"Ġinterested":4857,"omic":4858,"Ġcharge":4859,"ĠAir":4860,"ĠSign":4861,"Ġpick":4862,"ĠYear":4863,"Ġbank":4864,"ĠMary":4865,"ĠFebruary":4866,"Ġlib":4867,"tion":4868,"ĠUnion":4869,"rich":4870,"Ġradiation":4871,"akespeare":4872,"Ġupper":4873,"Ġworked":4874,"ĠMult":4875,"Ġsamples":4876,"Ġmostly":4877,"33":4878,"Ġtrou":4879,"ĠMor":4880,"Ġ29":4881,"Ġcourses":4882,"Ġcert":4883,"Ġbird":4884,"ĠEv":4885,"Ġparty":4886,"Ġdefic":4887,"45":4888,"rep":4889,"Ġsess":4890,"acing":4891,"27":4892,"Ġsurpr":4893,"Ġsatis":4894,"Ġadvice":4895,"point":4896,"ologist":4897,"Ġmobile":4898,"Ġshared":4899,"Ġvill":4900,"ĠFore":4901,"ĠWestern":4902,"ĠSun":4903,"ĠPhil":4904,"ĠSan":4905,"Ġparam":4906,"ĠWind":4907,"Ġfocused":4908,"Ġharmful":4909,");":4910,"emy":4911,"ĠHelp":4912,"Ġaudience":4913,"Ġmetab":4914,"Ġphysic":4915,"Ġsubjects":4916,"Ġrecords":4917,"ĠGr":4918,"Ġshar":4919,"Ġapproaches":4920,"Ġworldwide":4921,"inn":4922,"ĠChem":4923,"Ġfiles":4924,"Ġmentioned":4925,"Ġdivided":4926,"Ġcurriculum":4927,"Ġocean":4928,"ĠDet":4929,"Ġextensive":4930,"Ġchurch":4931,"ĠOld":4932,"Ġchallenging":4933,"Ġdouble":4934,"Ġmotion":4935,"Ġadding":4936,"Ġwire":4937,"Ġwear":4938,"ĠAtt":4939,"Ġcourt":4940,"Ġsports":4941,"Ġdetermined":4942,"Ġminor":4943,"Ġgenerate":4944,"Ġrenew":4945,"Ġmanner":4946,"cling":4947,"Ġpros":4948,"Ġprices":4949,"Ġtrib":4950,"âĢ¢":4951,"Ġmit":4952,"Ġbuildings":4953,"ĠEconom":4954,"Ġmaintenance":4955,"itative":4956,"otic":4957,"ĠOff":4958,"Ġlov":4959,"Ġfluid":4960,"och":4961,"Ġmonitoring":4962,"Ġseed":4963,"Ġdiversity":4964,"alle":4965,"ĠFre":4966,"ĠAny":4967,"Ġsche":4968,"ĠStart":4969,"Ġcertainly":4970,"Ġhit":4971,"Ġstone":4972,"Ġnuclear":4973,"abric":4974,"ĠView":4975,"Ġpassed":4976,"Ġgrass":4977,"Ġmission":4978,"ĠGood":4979,"Ġincl":4980,"inder":4981,"ĠRet":4982,"Ġimproving":4983,"Ġliterary":4984,"ĠFound":4985,"Ġvaccine":4986,"Ġprepared":4987,"Ġcomposition":4988,"Ġwealth":4989,"osite":4990,"ĠReview":4991,"Ġign":4992,"roup":4993,"atically":4994,"ĠCoun":4995,"ING":4996,"ek":4997,"ĠStudies":4998,"cript":4999,"Ġprogramming":5000,"ĠManagement":5001,"ĠWashington":5002,"Ġskill":5003,"Ġpieces":5004,"Ġdie":5005,"Ġblog":5006,"eline":5007,"Ġgram":5008,"ulin":5009,"Ġchemicals":5010,"olars":5011,"Ġparticipants":5012,"Ġdestroy":5013,"mark":5014,"Ġnit":5015,"Ġinjury":5016,"ns":5017,"Ġmedium":5018,"ĠCle":5019,"ĠMedic":5020,"Ġcook":5021,"Ġvessel":5022,"ĠSociety":5023,"Ġhaz":5024,"Ġju":5025,"Ġtypical":5026,"col":5027,"Ġnotice":5028,"oxide":5029,"Ġeventually":5030,"II":5031,"Ġindicate":5032,"Ġsac":5033,"ĠCre":5034,"29":5035,"Ġplaying":5036,"Ġroots":5037,"Ġpsychological":5038,"Ġatmosphere":5039,"ĠBet":5040,"Ġpoem":5041,"ĠKey":5042,"pped":5043,"Ġcircuit":5044,"Ġregularly":5045,"resents":5046,"erent":5047,"ĠAsia":5048,"Ġplayed":5049,"Ġclearly":5050,"Ġ90":5051,"Ġnavig":5052,"Ġban":5053,"rence":5054,"Ġpair":5055,"isher":5056,"Ġesc":5057,"Ġtheme":5058,"Ġkeeping":5059,"ev":5060,"Ġreduction":5061,"ibilities":5062,"Ġcoord":5063,"stract":5064,"Ġsalt":5065,"ĠAssociation":5066,"Ġintended":5067,"Ġ2009":5068,"ij":5069,"pat":5070,"ĠSol":5071,"Ġlooks":5072,"ĠBus":5073,"ĠQuestions":5074,"ya":5075,"ĠInformation":5076,"Ġkn":5077,"Ġbeneficial":5078,"Ġgave":5079,"Ġsounds":5080,"Ġestimated":5081,"met":5082,"Ġuniversity":5083,"erved":5084,"ĠKeep":5085,"ĠMain":5086,"Ġattacks":5087,"olute":5088,"Ġflood":5089,"Ġhelped":5090,"ault":5091,"Ġrub":5092,"ĠHave":5093,"Ġvulner":5094,"Ġ195":5095,"Ġexchange":5096,"riage":5097,"Ġpand":5098,"Ġmuscles":5099,"Ġelectronic":5100,"AP":5101,"Ġdescribes":5102,"Ġhour":5103,"Ġ<":5104,"ĠTHE":5105,"mas":5106,"cules":5107,"Ġperhaps":5108,"oyal":5109,"Ġannual":5110,"Ġjobs":5111,"ĠIsrael":5112,"Ġdrinking":5113,"ĠChurch":5114,"ĠVis":5115,"Ġcast":5116,"vironments":5117,"Ġtransition":5118,"Ġingred":5119,"Ġterrit":5120,"Ġalt":5121,"Ġnerv":5122,"Ġvehicle":5123,"ĠDem":5124,"Ġmaximum":5125,"Ġinstruction":5126,"Ġpaint":5127,"ĠFam":5128,"ĠEffect":5129,"Ġstudying":5130,"Ġcorresp":5131,"ĠDig":5132,"Ġjustice":5133,"rastructure":5134,"zy":5135,"Ġappearance":5136,"za":5137,"Ġdating":5138,"Ġwanted":5139,"Ġprepare":5140,"Ġrepresents":5141,"Ġcontinued":5142,"Ġextract":5143,"Ġexplains":5144,"Ġages":5145,"Ġdepth":5146,"Ġviews":5147,"ĠCult":5148,"then":5149,"celer":5150,"Ġexplan":5151,"Ġvoice":5152,"Ġlifestyle":5153,"aint":5154,"ava":5155,"Ġlic":5156,"ĠCy":5157,"omach":5158,"Ġyouth":5159,"rating":5160,"down":5161,"Ġvalid":5162,"Ġabuse":5163,"Ġcolumn":5164,"Ġsignificance":5165,"road":5166,"Ġchoices":5167,"ĠWord":5168,"Ġconcentration":5169,"Ġcustomers":5170,"ĠUN":5171,"Ġcenturies":5172,"iverse":5173,"unt":5174,"athy":5175,"36":5176,"Ġhearing":5177,"'ve":5178,"Ġamerican":5179,"ĠSym":5180,"Ġproteins":5181,"ago":5182,"Ġbattle":5183,"Ġod":5184,"ĠStand":5185,"lements":5186,"ĠPort":5187,"Ġchain":5188,"Ġnutrition":5189,"Ġlose":5190,"Ġdecrease":5191,"Ġemergency":5192,"ĠProv":5193,"Ġfacilit":5194,"Ġdrink":5195,"aturally":5196,"ĠLatin":5197,"Ġdream":5198,"ĠTime":5199,"uls":5200,"Ġbiological":5201,"Ġpopulations":5202,"ĠMich":5203,"Ġlegis":5204,"itage":5205,"Ġinstitutions":5206,"OT":5207,"ĠTake":5208,"Ġexposed":5209,"Ġbright":5210,"su":5211,"Ġfaith":5212,"Ġleader":5213,"yles":5214,"going":5215,"Ġneut":5216,"gal":5217,"uting":5218,"Ġfoss":5219,"Ġprocedures":5220,"Ġinflammation":5221,"39":5222,"Ġpregnancy":5223,"Ġwet":5224,"Ġrecognize":5225,"Ġstages":5226,"Ġsubstance":5227,"Ġdial":5228,"ĠCheck":5229,"rog":5230,"ashion":5231,"ĠWhite":5232,"Ġera":5233,"ĠTem":5234,"US":5235,"ĠMal":5236,"Ġ70":5237,"Ġartificial":5238,"osen":5239,"Ġselected":5240,"Ġfollows":5241,"arant":5242,"Ġperiods":5243,"ormal":5244,"Ġtum":5245,"Ġsurgery":5246,"Ġresponsibility":5247,"Ġtail":5248,"ffee":5249,"lig":5250,"Ġpotentially":5251,"Ġfertil":5252,"Ġconservation":5253,"Ġdeliver":5254,"Ġpig":5255,"ĠDespite":5256,"inf":5257,"ĠDist":5258,"Ġsets":5259,"Ġdatabase":5260,"tage":5261,"ishes":5262,"ĠRepublic":5263,"Ġspend":5264,"roc":5265,"Ġmedications":5266,"Ġlibrary":5267,"Ġliver":5268,"inate":5269,"Ġdisp":5270,"ĠCare":5271,"Ġprecise":5272,"Ġcardi":5273,"obe":5274,"inating":5275,"word":5276,"Ġtaught":5277,"Ġrespir":5278,"Ġneuro":5279,"inent":5280,"airs":5281,"osa":5282,"ĠPal":5283,"ams":5284,"Ġsurrounding":5285,"ĠLa":5286,"faces":5287,"Ġoutline":5288,"Ġfoundation":5289,"Ġmyth":5290,"ĠPsych":5291,"anted":5292,"ĠConf":5293,"Ġenvironments":5294,"wood":5295,"ĠAdv":5296,"ĠDisc":5297,"well":5298,"Ġdocuments":5299,"mp":5300,"Ġusage":5301,"Ġcompleted":5302,"Ġengage":5303,"Ġnetworks":5304,"ĠIntroduction":5305,"Ġsignal":5306,"aughter":5307,"ĠWomen":5308,"inations":5309,"Ġvehicles":5310,"arten":5311,"Ġ2008":5312,"ĠIN":5313,"ifications":5314,"ĠDownload":5315,"Ġconfirm":5316,"Ġphone":5317,"CO":5318,"Ġselection":5319,"ĠCreat":5320,"Ġwriters":5321,"Ġfamiliar":5322,"Ġmagnetic":5323,"Ġspl":5324,"ĠOF":5325,"hips":5326,"ĠÎ":5327,"icated":5328,"Ġpreviously":5329,"ascular":5330,"Ġtut":5331,"ĠWell":5332,"Ġresist":5333,"ĠSaf":5334,"Ġindex":5335,"Ġthin":5336,"istan":5337,"cers":5338,"Ġindustries":5339,"inger":5340,"ĠJames":5341,"Ġphilosophy":5342,"Ġvent":5343,"75":5344,"ĠDavid":5345,"Ġfiber":5346,"Ġ)":5347,"Ġhear":5348,"Ġcrisis":5349,"ĠSl":5350,"Ġminerals":5351,"Ġwonder":5352,"Ġframework":5353,"rors":5354,"Ġlived":5355,"ache":5356,"ĠLoc":5357,"othing":5358,"ĠFurthermore":5359,"inant":5360,"Ġleadership":5361,"Ġhospital":5362,"ĠEqu":5363,"ĠGovernment":5364,"Ġcultures":5365,"Ġrul":5366,"free":5367,"Ġbarri":5368,"Ġoffered":5369,"Ġcm":5370,"Ġtransact":5371,"Ġcere":5372,"Ġdoll":5373,"38":5374,"Ġroutine":5375,"Ġrecorded":5376,"Ġincreasingly":5377,"roke":5378,"Ġtouch":5379,"Ġtraffic":5380,"Ġcampaign":5381,"Ġlandscape":5382,"idents":5383,"Ġ2000":5384,"ĠBible":5385,"pass":5386,"Ġvast":5387,"Ġexercises":5388,"Ġvictim":5389,"aser":5390,"Ġmeasured":5391,"Ġcombined":5392,"Ġcomparison":5393,"net":5394,"ded":5395,"Ġallerg":5396,"Ġsecondary":5397,"agers":5398,"ifies":5399,"ĠFollow":5400,"Ġkm":5401,"chers":5402,"Ġbow":5403,"Ġlinks":5404,"hi":5405,"ĠBC":5406,"Ġshowing":5407,"Ġcontem":5408,"ĠTur":5409,"Ġhandle":5410,"Ġdrawing":5411,"Ġhero":5412,"asure":5413,"ĠDel":5414,"Ġrecovery":5415,"Ġdomestic":5416,"ially":5417,"Ġtoxic":5418,"ĠNAS":5419,"Ġrein":5420,"ander":5421,"ĠRef":5422,"ĠMiddle":5423,"Ġapprec":5424,"Ġmeeting":5425,"ĠPrint":5426,"Ġclim":5427,"Ġsheet":5428,"Ġmeant":5429,"ĠKore":5430,"ĠAcad":5431,"Ġsecret":5432,"Ġsensitive":5433,"LA":5434,"Ġpictures":5435,"Ġsimpl":5436,"How":5437,"ĠDise":5438,"Ġmer":5439,"Ġdoub":5440,"Ġfabric":5441,"Ġaccompl":5442,"Ġvirtual":5443,"Ġgenes":5444,"Ġhomework":5445,"Ġvocabulary":5446,"Ġdiscipl":5447,"ĠMedical":5448,"rd":5449,"ĠWhether":5450,"Ġobtained":5451,"Ġmedication":5452,"Ġ2022":5453,"Ġhabits":5454,"isk":5455,"osph":5456,"100":5457,"ĠLord":5458,"iated":5459,"ĠList":5460,"ĠEas":5461,"ĠCivil":5462,"unk":5463,"ĠSet":5464,"ergarten":5465,"Ġconvent":5466,"Ġcomputers":5467,"ipped":5468,"Ġeveryday":5469,"Ġcontaining":5470,"Ġcustomer":5471,"Ġinstructions":5472,"Ġax":5473,"Ġfasc":5474,"ĠWrite":5475,"Ġprinciple":5476,"ĠDirect":5477,"Ġratio":5478,"flow":5479,"Ġmolecules":5480,"Ġreliable":5481,"Ġchann":5482,"Ġmoral":5483,"fall":5484,"Ġelev":5485,"ortunately":5486,"izer":5487,"Ġhypot":5488,"ĠExt":5489,"Ã¡":5490,"Ġraw":5491,"Ġremoved":5492,"ĠControl":5493,"Ġmorning":5494,"tr":5495,"Ġdro":5496,"ĠCongress":5497,"Ġexamine":5498,"ĠPhot":5499,"Ġkit":5500,"Ġdriving":5501,"ĠHol":5502,"ĠInstead":5503,"ounced":5504,"Ġstock":5505,"Ġcontrolled":5506,"Ġmort":5507,"Ġreb":5508,"Ġisland":5509,"Ġsouthern":5510,"ĠSpace":5511,"aker":5512,"ĠAng":5513,"Ġ2007":5514,"ĠAnalysis":5515,"esity":5516,"Ġtrain":5517,"Ġelectron":5518,"Ġ35":5519,"Ġarm":5520,"rect":5521,"ivery":5522,"Ġproposed":5523,"Ġintake":5524,"Ġsentences":5525,"Ġimmun":5526,"Ġinsights":5527,"Ġcollected":5528,"Ġstomach":5529,"ĠComput":5530,"Ġdiscussed":5531,"utive":5532,"Ġswitch":5533,"DA":5534,"ped":5535,"Ġcomment":5536,"Ġprevention":5537,"Ġenable":5538,"Ġcreates":5539,"Ġthor":5540,"ĠArab":5541,"ny":5542,"Ġflat":5543,"Ġsyndrome":5544,"eper":5545,"ressed":5546,"ython":5547,"Ġinfrastructure":5548,"Ġdensity":5549,"uracy":5550,"Ġcommunicate":5551,"ĠReading":5552,"opes":5553,"ado":5554,"Ġchildhood":5555,"Ġdescription":5556,"Ġnations":5557,"Ġinsurance":5558,"Ġopinion":5559,"Ġcultiv":5560,"Ġconcrete":5561,"ĠCentral":5562,"Ġinteraction":5563,"ĠMem":5564,"ilding":5565,"Ġrecognized":5566,"Ġanalyze":5567,"igenous":5568,"akers":5569,"Ġformula":5570,"ĠMoreover":5571,"].":5572,"Ġmovements":5573,"ĠHen":5574,"Ġroles":5575,"Ġfirm":5576,"Ġconv":5577,"Ġextent":5578,"Ġaren":5579,"Ġpsychology":5580,"Ġkilled":5581,"Ġbeliefs":5582,"RI":5583,"riend":5584,"Ġinstrument":5585,"Ġble":5586,"2017":5587,"ĠGuide":5588,"Ġassignment":5589,"rons":5590,"Ġham":5591,"ĠPC":5592,"Ġmachines":5593,"Ġbrown":5594,"Ġturned":5595,"Ġgluc":5596,"Ġpresident":5597,"âĢľ":5598,"Ġcloud":5599,"Ġformal":5600,"Ġnan":5601,"Ġsufficient":5602,"ĠYes":5603,"ĠAC":5604,"Ġdu":5605,"Ġwave":5606,"Ġbond":5607,"Ġedition":5608,"bing":5609,"leg":5610,"ĠBritain":5611,"Ġfill":5612,"Ġfarmers":5613,"Ġcarb":5614,"Ġfract":5615,"ĠMiss":5616,"oster":5617,"Ġsaying":5618,"ĠService":5619,"Ġstem":5620,"Ġnarrative":5621,"Ġwit":5622,"Ġnorthern":5623,"den":5624,"ĠPlant":5625,"Ġcutting":5626,"Ġsed":5627,"Ġcoloring":5628,"Ġsell":5629,"Ġdiscrim":5630,"Ġstudied":5631,"MS":5632,"Ġplate":5633,"Ġgar":5634,"95":5635,"itors":5636,"Ġagriculture":5637,"ĠMount":5638,"atric":5639,"verty":5640,"ĠLiter":5641,"ĠOnline":5642,"itz":5643,"Ġpoverty":5644,"Ġcrypt":5645,"Ġpandemic":5646,"37":5647,"eal":5648,"ctor":5649,"Ġprotected":5650,"Ġarchitecture":5651,"Ġspiritual":5652,"ĠFinally":5653,"Ġore":5654,"ulating":5655,"ague":5656,"Ġrelax":5657,"Ġlots":5658,"Ġsupported":5659,"Ġlik":5660,"Ġgreatest":5661,"ĠLab":5662,"Ġcorpor":5663,"Ġregulations":5664,"ĠWik":5665,"ĠSal":5666,"ĠProcess":5667,"Ð¸":5668,"Ġpurchase":5669,"amins":5670,"oughly":5671,"ĠGeorge":5672,"Ġheard":5673,"Ġdiagram":5674,"ĠTeac":5675,"Ġoutl":5676,"olester":5677,"icon":5678,"yn":5679,"ĠTer":5680,"Ġgrown":5681,"ĠTex":5682,"BC":5683,"olf":5684,"Ġplayers":5685,"Ġunderlying":5686,"Ġagricultural":5687,"ĠNon":5688,"Ġkept":5689,"Ġgirls":5690,"ups":5691,"ari":5692,"ĠGlobal":5693,"Ġstarts":5694,"01":5695,"Ġpret":5696,"othe":5697,"ndom":5698,"Ġwest":5699,"Ġnaturally":5700,"ĠBusiness":5701,"Ġpump":5702,"Ġreactions":5703,"ĠEmp":5704,"Ġclosely":5705,"ĠEarly":5706,"ĠRober":5707,"ipping":5708,"ĠMil":5709,"name":5710,"Ġsettings":5711,"Ġexistence":5712,"Ġconclud":5713,"Ġwaves":5714,"iced":5715,"ĠClick":5716,"Ġpurs":5717,"34":5718,"65":5719,"Ġsend":5720,"Ġdespite":5721,"Ġsmoking":5722,"Ġproport":5723,"Ġalign":5724,"Ġabsolute":5725,"Ġscholars":5726,"Ġship":5727,"Ġstation":5728,"Ġstorm":5729,"Ġsubstant":5730,"mic":5731,"Ġaer":5732,"Ġmoved":5733,"ĠMexico":5734,"vity":5735,"Ġcash":5736,"Ġbehaviors":5737,"Ġcyber":5738,"plicated":5739,"aks":5740,"ĠType":5741,"ĠBre":5742,"Ġproducing":5743,"advant":5744,"Ġspeaking":5745,"ĠNASA":5746,"berg":5747,"Ġacceler":5748,"Ġpersu":5749,"Ġguidance":5750,"ĠPDF":5751,"Ġprem":5752,"Ġbehaviour":5753,"olesterol":5754,"oke":5755,"Ġcircumst":5756,"ÑĤ":5757,"pes":5758,"anes":5759,"Ġshel":5760,"acific":5761,"ĠMuse":5762,"cover":5763,"Ġcompounds":5764,"Ġmonitor":5765,"Ġonto":5766,"Ġprintable":5767,"Ġwestern":5768,"Ġinterests":5769,"Ġvariable":5770,"ĠEth":5771,"Ġevaluation":5772,"Ġtal":5773,"ria":5774,"ĠLeg":5775,"Ġlearners":5776,"Ġcrime":5777,"ĠBat":5778,"Ġacts":5779,"eles":5780,"Ġhydrogen":5781,"Ġsides":5782,"Ġfeedback":5783,"Ġminimum":5784,"Ġcovers":5785,"LE":5786,"Ġstored":5787,"Ġacids":5788,"Ġcoffee":5789,"ĠQue":5790,"ĠAP":5791,"Ġoffering":5792,"Ġcopper":5793,"Ġunderst":5794,"roduct":5795,"Ġperman":5796,"Ġcorrespond":5797,"iled":5798,"Ġnar":5799,"Ġgather":5800,"ĠPaul":5801,"Ġdistingu":5802,"Ġethical":5803,"making":5804,"Ġimper":5805,"organ":5806,"Ġserved":5807,"SA":5808,"ĠMass":5809,"ĠJe":5810,"Ġnormally":5811,"ĠMean":5812,"raction":5813,"Ġbrand":5814,"tering":5815,"Ġfort":5816,"Ġsuffering":5817,"Ġsod":5818,"Ġ45":5819,"ĠHam":5820,"Ġcars":5821,"ropical":5822,"05":5823,"Ġassemb":5824,"Ġconsistent":5825,"ĠCam":5826,"Ġcapable":5827,"Ġfocuses":5828,"oper":5829,"Ġtransmission":5830,"ying":5831,"ĠIr":5832,"Ġhappy":5833,"ĠSea":5834,"Ġrapidly":5835,"Ġtheories":5836,"Ġobvious":5837,"Ġsmooth":5838,"Ġsen":5839,"ĠMr":5840,"Ġabilities":5841,"ĠLast":5842,"ĠMill":5843,"Ġraise":5844,"Ġfacilities":5845,"Ġrequest":5846,"Ġshapes":5847,"ometimes":5848,"Ġinches":5849,"Ġdent":5850,"Ġsubstances":5851,"Ġdrop":5852,"Ġsupporting":5853,"Ġaccounts":5854,"ĠEnvironmental":5855,"Ġleaf":5856,"Ġinterview":5857,"lers":5858,"Ġwants":5859,"Ġgenerated":5860,"Ġgrand":5861,"alian":5862,"Ġauthority":5863,"asp":5864,"ĠGold":5865,"Ġprofessor":5866,"ossible":5867,"rolog":5868,"udden":5869,"alled":5870,"Ġcompr":5871,"ĠAuthor":5872,"Ġapart":5873,"Ġslightly":5874,"coin":5875,"isp":5876,"Ġreven":5877,"ĠJewish":5878,"Ġstated":5879,"Ġexpensive":5880,"Ġoffic":5881,"ĠMart":5882,"ka":5883,"Ġwalls":5884,"Ġrandom":5885,"ĠIdent":5886,"Ġaqu":5887,"Ġunited":5888,"idden":5889,"Ġassistance":5890,"Ġafford":5891,"Ġdut":5892,"ĠRich":5893,"Ġcalcium":5894,"32":5895,"Ġharvest":5896,"nel":5897,"Ġaccuracy":5898,"long":5899,"ĠOpen":5900,"gets":5901,"Ġconfidence":5902,"ĠExamples":5903,"Ġinteractions":5904,"Ġappoint":5905,"Ġobjective":5906,"Ġdefine":5907,"Ġpup":5908,"Ġachieved":5909,"ĠRussia":5910,"Ġdecided":5911,"oom":5912,"ĠLong":5913,"racy":5914,"Ġadequ":5915,"ĠIslam":5916,"Ġpresentation":5917,"Ġreached":5918,"azing":5919,"Ġtested":5920,"ato":5921,"Ġmeasurement":5922,"ĠTexas":5923,"Ġaims":5924,"Ġaw":5925,"ĠLou":5926,"ĠTable":5927,"Ġmineral":5928,"Ġevaluate":5929,"ĠPers":5930,"Ġinformed":5931,"Ġvisible":5932,"ocking":5933,"Ġastron":5934,"Ġcouple":5935,"48":5936,"Ġraised":5937,"oding":5938,"Ġdecide":5939,"Ġportion":5940,"Ġinnovation":5941,"IG":5942,"Ġspent":5943,"ĠCath":5944,"ĠSuch":5945,"Ġpreval":5946,"Ġinsulin":5947,"Ġbeauty":5948,"Ġtraum":5949,"Ġdescript":5950,"pping":5951,"ellect":5952,"Ġnoted":5953,"Ġrural":5954,"ĠCap":5955,"ĠStr":5956,"ĠAtl":5957,"Ġca":5958,"Ġbudget":5959,"Ġconsumers":5960,"ĠHistor":5961,"icious":5962,"ĠIP":5963,"Ġhappened":5964,"Ġcarefully":5965,"Ġfashion":5966,"Ġmoon":5967,"Ġconscious":5968,"lar":5969,"ĠRad":5970,"Ġexperiments":5971,"Ġpdf":5972,"Ġsupplement":5973,"Ġaccessible":5974,"Ġerror":5975,"Ġgal":5976,"Ġbrother":5977,"Ġfigures":5978,"Ġstars":5979,"Ġremote":5980,"Ġvariables":5981,"Ġadvert":5982,"bi":5983,"Ġbreathing":5984,"Ġdiscovery":5985,"Ġfinally":5986,"Ġsales":5987,"chain":5988,"rant":5989,"Ġengaging":5990,"hav":5991,"ĠIns":5992,"Ġcritic":5993,"Ġfixed":5994,"Ġbones":5995,"Ġ300":5996,"ansion":5997,"Ġ31":5998,"Ġnor":5999,"Ġregist":6000,"Ã¼":6001,"Ġconcerned":6002,"Ġbio":6003,"rowing":6004,"Ġsubsequ":6005,"Ġhabitat":6006,"ĠCouncil":6007,"Ġconnections":6008,"alse":6009,"Ġfloor":6010,"Ġtalking":6011,"Ġimmig":6012,"Ġcats":6013,"ĠCourt":6014,"Ġfif":6015,"ivalent":6016,"ĠAnswer":6017,"ĠNote":6018,"oga":6019,"Ġthemes":6020,"icks":6021,"Ġsnow":6022,"ĠStat":6023,"Ġlargely":6024,"adian":6025,"Ġamb":6026,"Ġinjuries":6027,"Ġmulti":6028,"Ġexplained":6029,"Ġleaving":6030,"Ġband":6031,"ĠPaper":6032,"eless":6033,"ĠRussian":6034,"Ġderived":6035,"arsh":6036,"ipedia":6037,"ĠBest":6038,"Ġpure":6039,"Ġwish":6040,"Ġmixed":6041,"ĠMethod":6042,"ÃŃ":6043,"Ġshop":6044,"agon":6045,"Ġcrops":6046,"arter":6047,"Ġenab":6048,"Ġbreath":6049,"ael":6050,"weight":6051,"Ġglucose":6052,"Ġimprovement":6053,"Ġfunctional":6054,"Ġscenar":6055,"PT":6056,"As":6057,"Ġguarant":6058,"hop":6059,"ĠNor":6060,"ĠSing":6061,"Ġpref":6062,"stein":6063,"Ġcolour":6064,"Ġdelivery":6065,"Ġvoltage":6066,"iest":6067,"ĠJul":6068,"gans":6069,"Ġdepos":6070,"Ġsettle":6071,"Ġeast":6072,"Ġlocations":6073,"Al":6074,"Ġsequence":6075,"Ġabund":6076,"Ġobjectives":6077,"An":6078,"Ġrow":6079,"Ġchick":6080,"Ġindicates":6081,"Ġtaste":6082,"indu":6083,"Ġresol":6084,"Ġpresents":6085,"ĠSciences":6086,"Ġstruggle":6087,"Ġmillions":6088,"Ġproduces":6089,"gent":6090,"Ġfelt":6091,"Ġgovernments":6092,"ĠIndust":6093,"Ġsharing":6094,"Ġresponses":6095,"band":6096,"Ġvideos":6097,"Ġagreement":6098,"Ġserves":6099,"Ġforced":6100,"Ø§":6101,"Ġotherwise":6102,"Ġbalanced":6103,"44":6104,"ĠWorksheet":6105,"Ġcrusher":6106,"Ġchrom":6107,"Ġoverview":6108,"Ġorganisms":6109,"Ġseeking":6110,"Ġsurvival":6111,"Ġinfected":6112,"Ġsuccessfully":6113,"Ġstrengthen":6114,"Ġlaun":6115,"ĠIsland":6116,"Ġdifficulty":6117,"ena":6118,"Ġdivision":6119,"Ġexcessive":6120,"ĠFlor":6121,"Ġquiz":6122,"Ġethnic":6123,"ona":6124,"ĠMuseum":6125,"hma":6126,"tee":6127,"Ġexcl":6128,"ĠNatural":6129,"rag":6130,"Ġstable":6131,"ĠEvent":6132,"Ġparties":6133,"Ġphysics":6134,"tic":6135,"HO":6136,"ĠEst":6137,"ĠLand":6138,"Ġwindow":6139,"ĠEngineering":6140,"Ġoccurred":6141,"osc":6142,"Ġalph":6143,"ĠGroup":6144,"Ġmm":6145,"otal":6146,"Ġtruly":6147,"Ġinner":6148,"ĠImp":6149,"Ġtun":6150,"Ġpounds":6151,"Ġtoler":6152,"icking":6153,"Ġperce":6154,"ipes":6155,"Ġcharacterized":6156,"ĠMedicine":6157,"bert":6158,"Ġextended":6159,"Ġpaid":6160,"ĠRemember":6161,"Ġ500":6162,"ican":6163,"ĠMach":6164,"Ġorganized":6165,"Ġstret":6166,"ĠLibrary":6167,"iability":6168,"Ġlisted":6169,"aming":6170,"Ġsuggested":6171,"Ġsan":6172,"Ġsweet":6173,"Ġ2006":6174,"ersonal":6175,"inition":6176,"UR":6177,"Ġdust":6178,"Ġtransportation":6179,"Ġinfluenced":6180,"ĠSimilar":6181,"ĠHand":6182,"pre":6183,"Ġsick":6184,"apping":6185,"Ġsections":6186,"ensus":6187,"ĠAst":6188,"ĠSen":6189,"Ġhundreds":6190,"Ġstands":6191,"Ġ2005":6192,"ĠNav":6193,"Ġchosen":6194,"ĠVirgin":6195,"Ġmarketing":6196,"ults":6197,"ĠNature":6198,"ĠOx":6199,"Ġinsects":6200,"Ġteen":6201,"Ġpoetry":6202,"Ġwife":6203,"Ġconsumer":6204,"Ġtherap":6205,"ĠLesson":6206,"Ġtank":6207,"Ġtells":6208,"Ġcatch":6209,"Ġshell":6210,"throp":6211,"Ġmanaging":6212,"opl":6213,"31":6214,"Ġrestrict":6215,"Ġshift":6216,"Ġadvoc":6217,"Ġuns":6218,"Ġimplementation":6219,"Ġmood":6220,"level":6221,"Ġrecognition":6222,"Ġopening":6223,"Ġquantum":6224,"Ġcholesterol":6225,"Ġmathematics":6226,"ĠProfessor":6227,"Ġgall":6228,"Ġsupports":6229,"08":6230,"Ġmarriage":6231,"Ġvitamins":6232,"Ġsuffer":6233,"ĠAS":6234,"Ġzero":6235,"Ġwid":6236,"Ġsurvive":6237,"rox":6238,"Ġbiggest":6239,"Ġcards":6240,"Ġmild":6241,"ads":6242,"ĠRob":6243,"kin":6244,"Ġreduces":6245,"Ġnoise":6246,"posal":6247,"Ġobst":6248,"iform":6249,"ĠThomas":6250,"Ġassets":6251,"itus":6252,"Ġconsidering":6253,"ĠCat":6254,"Ġdeaths":6255,"what":6256,"Ġjoin":6257,"Ġpolitics":6258,"orter":6259,"Ġdesigns":6260,"Ġstyles":6261,"Ġrevealed":6262,"Ġfilled":6263,"Ġmur":6264,"Ġgreatly":6265,"orous":6266,"Ð½":6267,"ras":6268,"Ġpolice":6269,"etics":6270,"van":6271,"Ġenables":6272,"Ġpromoting":6273,"Ġdedicated":6274,"Ġaccum":6275,"ints":6276,"Ġcalories":6277,"Ġpreparation":6278,"Ġlabel":6279,"Ġwaters":6280,"Ġstability":6281,"Ġnoun":6282,"Ġconven":6283,"Ġdin":6284,"Ġcircumstances":6285,"ĠPop":6286,"aph":6287,"Ġscene":6288,"Ġitem":6289,"Ġconventional":6290,"Ġmechanical":6291,"Ġprotocol":6292,"Ġtiny":6293,"ocracy":6294,"Ġdesired":6295,"stream":6296,"Ġpossibly":6297,"Ġclaims":6298,"ĠHIV":6299,"Ġwarming":6300,"Ġelectro":6301,"Ġpreventing":6302,"win":6303,"ĠThose":6304,"anged":6305,"itory":6306,"Ġmatch":6307,"Ġobesity":6308,"Ġtheore":6309,"Ġcart":6310,"Ġcandid":6311,"uality":6312,"Ġinject":6313,"normal":6314,"Ġweap":6315,"Ġcooking":6316,"ĠÂ©":6317,"If":6318,"Ġwhereas":6319,"hyth":6320,"Ġmere":6321,"2018":6322,"Ġbiology":6323,"Ġtrends":6324,"Ġstatements":6325,"Ñģ":6326,"ester":6327,"Ġcategories":6328,"Ġkg":6329,"Ġinnovative":6330,"ogue":6331,"body":6332,"Ġopposite":6333,"Ġinteractive":6334,"Ġhoriz":6335,"Ġsatell":6336,"ĠRights":6337,"Ġadoles":6338,"Ġmechanisms":6339,"pected":6340,"ye":6341,"Ġscore":6342,"Ġaccounting":6343,"Ġmechanism":6344,"Ġfossil":6345,"ĠBer":6346,"umes":6347,"Ġstring":6348,"Ġlaboratory":6349,"Ġmembr":6350,"Ġflo":6351,"Ġcleaning":6352,"Ġmoisture":6353,"Ġunderstood":6354,"07":6355,"Ġlayers":6356,"lets":6357,"position":6358,"west":6359,"ĠAccess":6360,"ĠColor":6361,"oted":6362,"books":6363,"Ġnerve":6364,".|":6365,"Ġfurn":6366,"Ġindu":6367,"Ġclosed":6368,"how":6369,"Ġaf":6370,"iration":6371,"Ġrenewable":6372,"ĠVer":6373,"hand":6374,"Ġcomposed":6375,"Ġresidents":6376,"IL":6377,"Ġdemonstrate":6378,"igare":6379,"Ġadministration":6380,"Ġath":6381,"ĠImport":6382,"friend":6383,"dule":6384,"Ġdecline":6385,"Ġcompound":6386,"Ġspaces":6387,"Ġuniverse":6388,"ifest":6389,"Ġpersist":6390,"ĠPhysical":6391,"Ġequation":6392,"rid":6393,"itudes":6394,"Ġcryst":6395,"ÑĢ":6396,"itutional":6397,"ĠAp":6398,"Ġrespiratory":6399,"ishment":6400,"Ġcategory":6401,"Ġsudden":6402,"Ġwhom":6403,"Ġdioxide":6404,"ĠOrig":6405,"itely":6406,"Ġsport":6407,"Ġangle":6408,"ĠMaterial":6409,"Ġsuc":6410,"Ġexamination":6411,"Ġlies":6412,"ĠAge":6413,"Ġheating":6414,"Ġrid":6415,"wing":6416,"Ġplot":6417,"Ġfer":6418,"Ġdetection":6419,"Ġfulf":6420,"Ġunknown":6421,"Ġmixt":6422,"ĠCD":6423,"Ġdesire":6424,"Ġtea":6425,"OC":6426,"ĠRome":6427,"ĠEnd":6428,"Ġtexts":6429,"Ġpercentage":6430,"ML":6431,"Ġingredients":6432,"sts":6433,"Ġsignals":6434,"ometry":6435,"Ġmassive":6436,"Ġindependence":6437,"Ġdeeper":6438,"ĠOnly":6439,"Ġfle":6440,"Ġquantity":6441,"ocratic":6442,"ĠModern":6443,"usions":6444,"Ġswim":6445,"Ġedge":6446,"98":6447,"Ġwebsites":6448,"ĠPractice":6449,"Ġstick":6450,"pet":6451,"Ġcalls":6452,"Ġà¤":6453,"vis":6454,"Ġeffectiveness":6455,"Ġentry":6456,"Ġclar":6457,"Ġholds":6458,"ĠKids":6459,"Ġbiod":6460,"Ġrocks":6461,"idity":6462,"Ġmarine":6463,"Ġintellect":6464,"46":6465,"Ġarts":6466,"Ġcompetition":6467,"Ġ?":6468,"Ġsurfaces":6469,"Ġviruses":6470,"Ġment":6471,"icate":6472,"Ġcollaboration":6473,"aria":6474,"Ġunlike":6475,"ĠAlex":6476,"ĠSometimes":6477,"Ġdisadvant":6478,"ĠPacific":6479,"Ġoperate":6480,"edy":6481,"ĠShort":6482,"Ġ2023":6483,"ĠDifferent":6484,"Ġintervention":6485,"working":6486,"eren":6487,"ĠRobert":6488,"iotics":6489,"Ġpainting":6490,"ĠIll":6491,"ĠVict":6492,"76":6493,"ocy":6494,"Ġarmy":6495,"uts":6496,"Ġgreenhouse":6497,"Ġpark":6498,"ĠJud":6499,"Ġholid":6500,"Ġbot":6501,"ourage":6502,"ĠNative":6503,"IP":6504,"Ġreform":6505,"ĠUr":6506,"Ġlisten":6507,"ohyd":6508,"kes":6509,"ĠWood":6510,"ĠTry":6511,"ĠUSA":6512,"Ġfrequent":6513,"atever":6514,"anda":6515,"rian":6516,"Ġproof":6517,"Ġpersons":6518,"phone":6519,"Ġcrop":6520,"Ġbutter":6521,"ĠBack":6522,"Ġdisapp":6523,"ĠResearchers":6524,"Ġpersonality":6525,"Ġyield":6526,"han":6527,"ugh":6528,"ĠPlay":6529,"ĠCurrent":6530,"cest":6531,"ĠFrank":6532,"Ġdebate":6533,"CC":6534,"Ġfly":6535,"with":6536,"Ġmarked":6537,"ĠWindows":6538,"500":6539,"ĠLight":6540,"ĠExp":6541,"________________":6542,"Ġbroken":6543,"Ġsusp":6544,"hent":6545,"Ġgrammar":6546,"04":6547,"Ġfever":6548,"ĠDictionary":6549,"Ġblocks":6550,"SE":6551,"ĠConn":6552,"ĠFigure":6553,"Ġwors":6554,"Ġchemistry":6555,"Ġpull":6556,"Ġserver":6557,"ĠPython":6558,"ita":6559,"plate":6560,"zed":6561,"ymph":6562,"allel":6563,"ĠContin":6564,"Ġrail":6565,"ĠReport":6566,"Ġultimately":6567,"ĠComple":6568,"He":6569,"ĠBooks":6570,"ĠLow":6571,"itivity":6572,"ĠLake":6573,"Ġdoctors":6574,"ĠConsider":6575,"Ġmarkets":6576,"earch":6577,"Ġrepair":6578,"Ġvibr":6579,"Ġequivalent":6580,"ĠCompany":6581,"Ġtried":6582,"Ġgun":6583,"iler":6584,"Ġremark":6585,"Ġresil":6586,"Ġcontemporary":6587,"Ġcorrectly":6588,"writing":6589,"ĠBudd":6590,"Ġcrim":6591,"OL":6592,"ĠJo":6593,"ĠFoundation":6594,"Ġerrors":6595,"Ġchlor":6596,"ĠOcean":6597,"Ġregional":6598,"Ġpool":6599,"Ġarray":6600,"Ġexpressed":6601,"Ġkidney":6602,"ĠHenry":6603,"ĠAmong":6604,"ĠImpro":6605,"Ġmountain":6606,"Ġmanual":6607,"Ġsight":6608,"03":6609,"Ġmanaged":6610,"Ġahead":6611,"Ġrising":6612,"Ġbrings":6613,"Ġconvey":6614,"Ġforests":6615,"Ã³":6616,"Ġfeeding":6617,"Ġartists":6618,"ĠRevolution":6619,"Ġensures":6620,"ĠPan":6621,"Ġsky":6622,"Ġadopted":6623,"Ġcapture":6624,"Ġcomfortable":6625,"burg":6626,"ĠBit":6627,"Ġworry":6628,"Ġorgans":6629,"ĠJer":6630,"Ġconsume":6631,"Ġarrange":6632,"unte":6633,"Ġsin":6634,"Ġlect":6635,"Ġrepeated":6636,"rene":6637,"Ġongoing":6638,"iox":6639,"Ġstructural":6640,"Ġwalking":6641,"Ġproductivity":6642,"Ġdynamic":6643,"een":6644,"Ġwildlife":6645,"Ġ;":6646,"Ġbear":6647,"Ġinvolving":6648,"Ġcos":6649,"Ġfunds":6650,"Ġdisrupt":6651,"Ġsole":6652,"ĠImm":6653,"Ġaccepted":6654,"Ġconstantly":6655,"ala":6656,"Ġrom":6657,"Ġrelation":6658,"Ġplatforms":6659,"CT":6660,"Ġincred":6661,"ĠSpain":6662,"Ġteams":6663,"oral":6664,"Ġpil":6665,"ĠVit":6666,"Ġmamm":6667,"Ġdaughter":6668,"icing":6669,"ĠThough":6670,"Ġtissues":6671,"words":6672,"Ġcoron":6673,"Ġthreats":6674,"Ġhorse":6675,"born":6676,"ota":6677,"ĠDigital":6678,"Ġgenerations":6679,"ĠDisease":6680,"ĠCa":6681,"ĠMont":6682,"ĠHaw":6683,"Ġimpossible":6684,"Ġimmediate":6685,"craft":6686,"ĠLim":6687,"Ġowner":6688,"uke":6689,"Ġconvert":6690,"Ġintegrated":6691,"ĠLead":6692,"Ġmanip":6693,"Ġmeals":6694,"gers":6695,"soft":6696,"Ġimplications":6697,"ĠMuslim":6698,"Ġacknow":6699,"Ġoverl":6700,"ctic":6701,"Ġdepartment":6702,"war":6703,"Ġends":6704,"Ġexpansion":6705,"Ġverb":6706,"Ġidentifying":6707,"add":6708,"ĠJose":6709,"which":6710,"Ġplus":6711,"Ġadvent":6712,"Ġfavorite":6713,"zil":6714,"ĠTypes":6715,"itting":6716,"âĢĻ.":6717,"Ġtwice":6718,"hyd":6719,"Ġslowly":6720,"Ġvessels":6721,"Ġloved":6722,"ĠMo":6723,"hist":6724,"unc":6725,"ĠSil":6726,"Ġworse":6727,"Ġrely":6728,"Ġabstract":6729,"Ġcloser":6730,"Ġflight":6731,"luding":6732,"ritis":6733,"bles":6734,"azon":6735,"ĠHy":6736,"Ġveter":6737,"Ġtransp":6738,"Ġassociation":6739,"Ġoptimal":6740,"Ġutilized":6741,"uses":6742,"rovers":6743,"Ġbor":6744,"Ġracial":6745,"ĠChristmas":6746,"Ġlooked":6747,"Ġstroke":6748,"Ġtro":6749,"Ġstatistics":6750,"Ġcalculate":6751,"85":6752,"Ġfu":6753,"ovascular":6754,"Ġsolving":6755,"Ġstimul":6756,"ĠAustralian":6757,"Ġmold":6758,"Ġmetals":6759,"ĠFamily":6760,"ĠMa":6761,"Ġthermal":6762,"ĠCarol":6763,"Ġhem":6764,"stone":6765,"Ġ2003":6766,"Ġroof":6767,"Ã¶":6768,"icide":6769,"ĠCrit":6770,"There":6771,"ĠProper":6772,"Ġprinting":6773,"field":6774,"Ġrecept":6775,"ella":6776,"ĠResp":6777,"cific":6778,"Is":6779,"Ġcreativity":6780,"rooms":6781,"Ġdoor":6782,"Ġembra":6783,"ĠFlorida":6784,"Ġfarming":6785,"Ġpossibility":6786,"zes":6787,"ĠProble":6788,"Ġtables":6789,"Ġ186":6790,"ĠAsk":6791,"Ġdebt":6792,"ĠCharles":6793,"Ġflash":6794,"ĠClimate":6795,"Ġburning":6796,"Ġbatteries":6797,"inet":6798,"Ġmic":6799,"fe":6800,"ircraft":6801,"Ġgap":6802,"ĠDue":6803,"Ġmuse":6804,"96":6805,"umps":6806,"avirus":6807,"ĠKingdom":6808,"Ġsymbols":6809,"Ġinstruments":6810,"Ġinhib":6811,"ĠSolar":6812,"Ġparticipate":6813,"Ġmeters":6814,"Ġconfig":6815,"asters":6816,"Ġpanels":6817,"Ġflower":6818,"Ġ1990":6819,"fl":6820,"charge":6821,"Ġpray":6822,"aped":6823,"beth":6824,"Ġtight":6825,"Ġcomputing":6826,"mes":6827,"Ġtranslation":6828,"ĠResources":6829,"ĠLouis":6830,"ĠAND":6831,"ĠJews":6832,"Ġmeal":6833,"Ġpublication":6834,"ĠCatholic":6835,"Ġsmoke":6836,"Ġemployed":6837,"ĠThree":6838,"ĠNext":6839,"Ġ2004":6840,"ventions":6841,"Ġdiscrimination":6842,"inction":6843,"ĠWild":6844,"Ġsunlight":6845,"under":6846,"Ġfunding":6847,"Ġoriginally":6848,"Ġphenomenon":6849,"istical":6850,"Ġphotos":6851,"gs":6852,"ĠLabor":6853,"airy":6854,"Ġcontamin":6855,"Ġprofit":6856,"Ġchoosing":6857,"ĠSupport":6858,"gien":6859,"ĠPo":6860,"Ã¢":6861,"acco":6862,"Ġplenty":6863,"Ġbread":6864,"Ġhur":6865,"heim":6866,"Ġrig":6867,"Ġmetabol":6868,"Ġinequ":6869,"Ġhouses":6870,"arn":6871,"Ġunable":6872,"ĠColl":6873,"ady":6874,"Ġmarks":6875,"Ġtow":6876,"Ġorient":6877,"Ġremained":6878,"Ġcriminal":6879,"CD":6880,"idential":6881,"Ġlights":6882,"Ġtraditions":6883,"pread":6884,"ĠFranc":6885,"Ġdistrict":6886,"ighter":6887,"02":6888,"Ġlegs":6889,"Ġneighb":6890,"Ġretain":6891,"Ġprincip":6892,"Ġatoms":6893,"ĠItaly":6894,"Ġcriteria":6895,"Ġappeared":6896,"inity":6897,"utrit":6898,"erning":6899,"ĠSpecial":6900,"comm":6901,"Ġrepresented":6902,"Ġbanks":6903,"Ġ32":6904,"ĠBig":6905,"ĠDiv":6906,"Ġsustainability":6907,"bu":6908,"ĠBay":6909,"ĠExample":6910,"health":6911,"Ġcomplications":6912,"Ġcomplicated":6913,"yroid":6914,"Ġemployment":6915,"ĠGard":6916,"Ġcircle":6917,"ĠSever":6918,"icians":6919,"Ġexploration":6920,"Ġsummar":6921,"ĠFace":6922,"ENT":6923,"Ġentirely":6924,"Wh":6925,"quality":6926,"Ġresolution":6927,"Ġsupplies":6928,"ployment":6929,"Ġframe":6930,"Ġmolecular":6931,"rants":6932,"Ġsharp":6933,"sey":6934,"Ġpermanent":6935,"Ġpoison":6936,"ĠBenef":6937,"apor":6938,"fts":6939,"Ġapparent":6940,"gu":6941,"ĠPur":6942,"ĠOper":6943,"Ġtechnological":6944,"Ġlimits":6945,"Ġcapabilities":6946,"ville":6947,"ĠTreatment":6948,"Ġmaps":6949,"ĠConstitution":6950,"Ġtall":6951,"Ġvulnerable":6952,"Ġmode":6953,"Ġoutcome":6954,"Ġpretty":6955,"Ġzone":6956,"Ġsla":6957,"ĠLevel":6958,"Ġfav":6959,"orph":6960,"Ġfro":6961,"Ġtrend":6962,"iological":6963,"Ġtrained":6964,"Ġbib":6965,"levision":6966,"Ġirrit":6967,"ĠClin":6968,"paper":6969,"erior":6970,"Ġdealing":6971,"Ġwitness":6972,"onym":6973,"Ġintroduce":6974,"Ġexploring":6975,"ĠVar":6976,"Ġprison":6977,"ioxid":6978,"cher":6979,"onia":6980,"ĠYet":6981,"Ġexperiencing":6982,"Ġfold":6983,"idespread":6984,"she":6985,"Ġseeing":6986,"ĠAssess":6987,"Ġarms":6988,"Ġyounger":6989,"Ġru":6990,"Ġreserv":6991,"Ġforget":6992,"ora":6993,"Ġrepresentation":6994,"Ġclot":6995,"ĠAvoid":6996,"ini":6997,"door":6998,"itan":6999,"akistan":7000,"Ġcup":7001,"car":7002,"Ġbridge":7003,"ĠEmpire":7004,"ĠMag":7005,"Ġprovider":7006,"ĠAnn":7007,"Ġslavery":7008,"ĠHall":7009,"Ġfilter":7010,"ĠBur":7011,"ĠFederal":7012,"asts":7013,"Ġaffecting":7014,"Ġinhab":7015,"chen":7016,"55":7017,"ĠCommission":7018,"Ġsoldiers":7019,"Ã¤":7020,"Ġvolcan":7021,"Ġphosph":7022,"aud":7023,"elled":7024,"oviet":7025,"ki":7026,"Ġdietary":7027,"Ġmeasurements":7028,"Ġdecade":7029,"Ġrecommendations":7030,"Ġmultipl":7031,"Ġinfect":7032,"ht":7033,"ented":7034,"Ex":7035,"Ġchief":7036,"Ġprescrib":7037,"angle":7038,"rieved":7039,"Ġliteracy":7040,"ĠBased":7041,"zen":7042,"Ġfats":7043,"ĠCell":7044,"Ġscript":7045,"Ġboy":7046,"ĠItalian":7047,"UT":7048,"mm":7049,"irt":7050,"Ġmitig":7051,"ĠNations":7052,"Ġamazing":7053,"Ġturning":7054,"emia":7055,"Ġexpertise":7056,"%.":7057,"HD":7058,"Ġexists":7059,"Ġremaining":7060,"Ġepid":7061,"Ġpanel":7062,"88":7063,"Ġancest":7064,"Ġattend":7065,"Ġspending":7066,"ĠArmy":7067,"agues":7068,"Ġalgorithms":7069,"ĠYoung":7070,"osion":7071,"Ġaccident":7072,"imensional":7073,"ears":7074,"Ġlighting":7075,"Ġpartner":7076,"text":7077,"Ġspok":7078,"ĠBro":7079,"Ġdecor":7080,"Ġpharm":7081,"Ġreviews":7082,"ĠNever":7083,"Ġnervous":7084,"Cl":7085,"ĠInvest":7086,"Ġexplanation":7087,"otton":7088,"Ġnitrogen":7089,"ĠGener":7090,"Ġmixture":7091,"Ġintense":7092,"ĠUl":7093,"Ġunus":7094,"Ġadequate":7095,"Ġid":7096,"Ġfacing":7097,"oir":7098,"ĠWithout":7099,"ĠPrinc":7100,"Ġobserve":7101,"Ġcomments":7102,"Ġtele":7103,"Ġaudio":7104,"?âĢĿ":7105,"Ġrac":7106,"Ġnarrow":7107,"ĠScot":7108,"á¹":7109,"itter":7110,"ĠVirginia":7111,"06":7112,"Ġgerm":7113,"Read":7114,"ĠPot":7115,"Ġaddiction":7116,"Ġtube":7117,"ĠDefinition":7118,"Ġconcerning":7119,"Ġvac":7120,"Ġmathematical":7121,"Ġdys":7122,"ocur":7123,"Ġjaw":7124,"Ġvarieties":7125,"Ġadministr":7126,"Ġexplo":7127,"asty":7128,"Ġfewer":7129,"Ġhormone":7130,"97":7131,"holders":7132,"Ġmissing":7133,"ĠText":7134,"ĠOpt":7135,"hered":7136,"ĠSelect":7137,"Ġ36":7138,"ĠDid":7139,"gebra":7140,"Ġgrinding":7141,"IR":7142,"Ġring":7143,"ĠSuper":7144,"friendly":7145,"fish":7146,"Ġcamera":7147,"iture":7148,"fulness":7149,"Ġdemonstrated":7150,"ĠBab":7151,"Ġattached":7152,"Ġhus":7153,"ĠLook":7154,"Ġconsideration":7155,"Ġjump":7156,"Ġoblig":7157,"Ġlinear":7158,"%)":7159,"Ġwilling":7160,"You":7161,"roat":7162,"Ġfalse":7163,"BT":7164,"IM":7165,"Ph":7166,"rypt":7167,"irds":7168,"Ġrespectively":7169,"Ġphoto":7170,"state":7171,"Ġwidespread":7172,"ĠEr":7173,"ĠPhysics":7174,"ĠSecurity":7175,"Ġneck":7176,"Ġnine":7177,"Ġwarning":7178,"Ġstronger":7179,"ston":7180,"Ġhousing":7181,"Ġrelief":7182,"Ġcav":7183,"Ġrab":7184,"ounter":7185,"Ġsizes":7186,"nee":7187,"herent":7188,"DP":7189,"ola":7190,"Ġparameters":7191,"Ġran":7192,"Ġauthorities":7193,"outs":7194,"forcement":7195,"Ġentertain":7196,"Ġreplaced":7197,"ĠColumb":7198,"Ġregulation":7199,"Ġdamaged":7200,"Ġdistributed":7201,"86":7202,"Americ":7203,"Ġrice":7204,"ographical":7205,"Ġturns":7206,"ĠLar":7207,"earing":7208,"Ġknowing":7209,"Ġgradually":7210,"Ġschedule":7211,"Ġunless":7212,"Ġheritage":7213,"Ġpregnant":7214,"ĠSoviet":7215,"ĠBrazil":7216,"hus":7217,"ĠCommunity":7218,"47":7219,"Ġnutrient":7220,"Ġclothing":7221,"Ġfaced":7222,"Ġgained":7223,"Ġtub":7224,"ĠParis":7225,"effect":7226,"Ġrecycling":7227,"utch":7228,"ĠApplic":7229,"rays":7230,"AB":7231,"estone":7232,"ĠAM":7233,"ĠGal":7234,"Ġdistur":7235,"Ġlistening":7236,"iary":7237,"Ġtrials":7238,"Ġplane":7239,"Ġbabies":7240,"ĠWikipedia":7241,"scale":7242,"ait":7243,"Ġbrows":7244,"reek":7245,"Ġfest":7246,"lishing":7247,"Ġeld":7248,"orders":7249,"Ġdelay":7250,"ĠNumber":7251,"Ġthanks":7252,"Ġaward":7253,"Ġpreschool":7254,"Ġcurrency":7255,"Ġske":7256,"ĠFour":7257,"Ġproven":7258,"Ġ75":7259,"Ġdifficulties":7260,"Ġexciting":7261,"ĠSafety":7262,"Ġtone":7263,"ĠMot":7264,"Ġcontrovers":7265,"Ġparallel":7266,"Ġmeasuring":7267,"EP":7268,"Ġvertical":7269,"Ġmand":7270,"rape":7271,"ĠSouthern":7272,"Ġpowder":7273,"Ġcoverage":7274,"Ġdirector":7275,"ĠIncre":7276,"Ġdanger":7277,"print":7278,"Ġinterpretation":7279,"Ġofficials":7280,"Ġpy":7281,"Ġreward":7282,"sell":7283,"Ġfounded":7284,"ĠSmith":7285,"ĠServices":7286,"ĠVictor":7287,"ometric":7288,"Ġprove":7289,"cons":7290,"Ġspin":7291,"Ġcenters":7292,"Ġdomain":7293,"Ġdiagnosed":7294,"Ġpowers":7295,"Ġoutbre":7296,"Ġourselves":7297,"ĠNorthern":7298,"Ġpp":7299,"ĠBank":7300,"coming":7301,"igue":7302,"Ġstrict":7303,"Ġbutton":7304,"Ġcontrols":7305,"liest":7306,"Ġtraits":7307,"pling":7308,"ĠBoard":7309,"ĠCirc":7310,"Ġtract":7311,"ether":7312,"Ġborder":7313,"ĠChange":7314,"Ġupdated":7315,"Ġped":7316,"ĠCost":7317,"Ġsupplements":7318,"Ġdates":7319,"Ġshif":7320,"Ġovercome":7321,"Ġneighbor":7322,"liam":7323,"itual":7324,"Ġhealing":7325,"Ġcommitted":7326,"Ġintellectual":7327,"Ġphrase":7328,"Ġaircraft":7329,"Ġstanding":7330,"Ġpush":7331,"Ġartist":7332,"no":7333,"Ġexpectations":7334,"ĠCanadian":7335,"ilation":7336,"ĠOffice":7337,"icago":7338,"Ġinstalled":7339,"Ġputting":7340,"Ġwww":7341,"Ġparas":7342,"Ġperception":7343,"ĠAgricult":7344,"Ġfatty":7345,"Ġsatisf":7346,"Ġshed":7347,"Ġpositions":7348,"ĠMad":7349,"Ġshut":7350,"ua":7351,"Ġoccasion":7352,"ontal":7353,"ĠAdminist":7354,"Ġcooling":7355,"Ġopened":7356,"NC":7357,"Ġhole":7358,"oting":7359,"inson":7360,"ĠScientists":7361,"Ġcarbohyd":7362,"ris":7363,"Ġ2001":7364,"Ġmusical":7365,"ĠMen":7366,"Ġworkplace":7367,"ĠWords":7368,"Ġconversation":7369,"ĠCreate":7370,"Ġfascinating":7371,"Ġfung":7372,"Ġplayer":7373,"ml":7374,"ĠIT":7375,"Ġnose":7376,"itals":7377,"using":7378,"occ":7379,"reland":7380,"ĠDan":7381,"ĠMarket":7382,"Ġauthent":7383,"Ġinsight":7384,"Ġintest":7385,"Ġton":7386,"Ġpeak":7387,"Ġfunctioning":7388,"Ġgirl":7389,"ĠShould":7390,"oids":7391,"Ġintegration":7392,"Ð¾Ð":7393,"Ġbath":7394,"ĠPeter":7395,"Ġarguments":7396,"Ġvillage":7397,"ĠCopy":7398,"ĠUnlike":7399,"ĠCancer":7400,"Ġcorn":7401,"Ġefficiently":7402,"ĠSeveral":7403,"esides":7404,"Ġsheets":7405,"Ġinsert":7406,"ading":7407,"Ġdecay":7408,"ĠHaving":7409,"ĠMars":7410,"Ġobservations":7411,"ĠModel":7412,"ĠLit":7413,"Ġproviders":7414,"Ġexperimental":7415,"Ġduration":7416,"top":7417,"thritis":7418,"ione":7419,"NS":7420,"ĠThanks":7421,"iotic":7422,"Ġfocusing":7423,"Ġfourth":7424,"Ġmessages":7425,"ĠAsian":7426,"ĠComputer":7427,"ĠTO":7428,"lo":7429,"apes":7430,"09":7431,"Ġdrain":7432,"Ġmovie":7433,"ĠArticle":7434,"Ġagencies":7435,"Ġresulted":7436,"ĠPM":7437,"Ġremoval":7438,"Ġspectrum":7439,"Ġdiameter":7440,"Ġtreating":7441,"ĠSystems":7442,"Ġhardware":7443,"uther":7444,"ĠMer":7445,"Ġdependent":7446,"Ġboundaries":7447,"Ġuncertain":7448,"ĠObject":7449,"Ġflexible":7450,"Ġcement":7451,"Ġbranches":7452,"etary":7453,"Ġgut":7454,"ample":7455,"Ġdetermining":7456,"ymes":7457,"49":7458,"abeth":7459,"Ġparticipation":7460,"Ġcombat":7461,"Ġturb":7462,"ĠQuestion":7463,"Ġsucceed":7464,"liament":7465,"Ġrect":7466,"Ġnursing":7467,"ĠTimes":7468,"Ġdigestive":7469,"ogs":7470,"ĠIreland":7471,"agnetic":7472,"Ġavailability":7473,"Ar":7474,"ĠSat":7475,"Ġnecessarily":7476,"imensions":7477,"olving":7478,"Ġstreet":7479,"ĠTV":7480,"eenth":7481,"Ġspecialized":7482,"Ġterritory":7483,"ĠTre":7484,"Ġphotograph":7485,"Ġcardiovascular":7486,"Ġ2002":7487,"Ġmicrob":7488,"Ġfemales":7489,"ĠTeaching":7490,"Ġclient":7491,"Ġprominent":7492,"Ġrealize":7493,"Ġruns":7494,"Ġwait":7495,"Ġlaunched":7496,"Ġcommitment":7497,"Ġsteam":7498,"Ġsensors":7499,"Ġgrades":7500,"azine":7501,"Ġcareful":7502,"Ġprinted":7503,"ĠRegular":7504,"Ġknows":7505,"Ġbranch":7506,"ĠImpact":7507,"ï¼":7508,"ĠDev":7509,"ediatric":7510,"sm":7511,"irty":7512,"77":7513,"gments":7514,"ortion":7515,"Ġcovering":7516,"bur":7517,"Ġanalys":7518,"Ġestimate":7519,"Ġseconds":7520,"Ġacute":7521,"Ġequality":7522,"list":7523,"Ġprocessed":7524,"Ġarchae":7525,"eness":7526,"ĠMoon":7527,"cycl":7528,"giene":7529,"Ġsurve":7530,"Ġclassical":7531,"Un":7532,"icy":7533,"Ġchances":7534,"Ġknew":7535,"Ġantioxid":7536,"Ġclients":7537,"Ġagency":7538,"ulty":7539,"oven":7540,"Ġasthma":7541,"Ġfighting":7542,"Ġtons":7543,"asting":7544,"Ġvariations":7545,"ĠName":7546,"Ġthousand":7547,"ptom":7548,"Ġreject":7549,"Ġinn":7550,"Ġagents":7551,"ĠEc":7552,"Ġov":7553,"Ġlaser":7554,"theless":7555,"Ġlogic":7556,"mia":7557,"Ġeliminate":7558,"Ġgone":7559,"Ġoldest":7560,"Ġathlet":7561,"Ġdrawn":7562,"Ġmales":7563,"Ġstrain":7564,"Ġsmell":7565,"Ġeastern":7566,"lines":7567,"iber":7568,"ĠBeing":7569,"Ġvel":7570,"Ġcompetitive":7571,"umber":7572,"Ġkindergarten":7573,"Ġcraft":7574,"Ġregardless":7575,"ieval":7576,"ĠBal":7577,"Ġtrip":7578,"ogenic":7579,"Ġconj":7580,"ĠMah":7581,"Ġmoves":7582,"such":7583,"Ġtropical":7584,"Ġfo":7585,"Ġvolunte":7586,"Â·":7587,"Ġscar":7588,"dr":7589,"ĠEU":7590,"Ġeducators":7591,"Ġended":7592,"Ġintegr":7593,"Ġevolved":7594,"ĠKind":7595,"ounce":7596,"Ġreceiving":7597,"Ġdefinitely":7598,"box":7599,"Ġasking":7600,"ĠFrancis":7601,"89":7602,"ĠProduct":7603,"ĠIII":7604,"mers":7605,"Ġblow":7606,"heast":7607,"Ġweakness":7608,"Ġflour":7609,"Ġgrid":7610,"ĠOh":7611,"ĠParent":7612,"Ġease":7613,"Ġmarried":7614,"ĠBehav":7615,"ĠPrim":7616,"Ġimplemented":7617,"Ġdemands":7618,"Ġsubs":7619,"lied":7620,"auses":7621,"elesc":7622,"Ġbeings":7623,"ĠHeart":7624,"Ġstake":7625,"Ġreturned":7626,"Ġminimize":7627,"Ġutilize":7628,"Ġrobot":7629,"Ġinterventions":7630,"Ġserving":7631,"Ġpayment":7632,"OM":7633,"Ġtutorial":7634,"duction":7635,"Ġnearby":7636,"prof":7637,"Ġdecreased":7638,"ĠLED":7639,"Ġlatter":7640,"Ġdefinitions":7641,"Ġbigger":7642,"Ġanywhere":7643,"ĠIde":7644,"ĠAncient":7645,"Ġhazard":7646,"!!":7647,"ĠPakistan":7648,"rix":7649,"ket":7650,"Ġconstit":7651,"Ġsession":7652,"Ġabnormal":7653,"Ġidentification":7654,"Ġinvention":7655,"Ġmg":7656,"issance":7657,"Ġclassified":7658,"ĠScott":7659,"Ġbacterial":7660,"Ġfinished":7661,"BN":7662,"Ġdefect":7663,"Ġhandling":7664,"Ġundert":7665,"Ġautomatically":7666,"Ġreferences":7667,"ĠAmazon":7668,"haust":7669,"Ġintensity":7670,"Ġboys":7671,"ĠStrateg":7672,"Ġemotion":7673,"Ġlungs":7674,"Ġmatters":7675,"ĠRoyal":7676,"Ġadverse":7677,"ĠMedia":7678,"Ġflexibility":7679,"ĠFund":7680,"aren":7681,"Ġsensor":7682,"Ġbonds":7683,"Ġplanting":7684,"Ġpassion":7685,"ette":7686,"Ġprotecting":7687,"Ġinvestigation":7688,"Ġclassic":7689,"Ġpassage":7690,"ĠSource":7691,"ĠPage":7692,"ĠRom":7693,"Ġtelevision":7694,"izabeth":7695,"hea":7696,"ĠFire":7697,"reprene":7698,"Ġholding":7699,"ĠMusic":7700,"Ġsale":7701,"Ġconversion":7702,"Ġdance":7703,"Ġdispl":7704,"ĠCP":7705,"Ġrecover":7706,"Ġdoubt":7707,"ega":7708,"Ġnob":7709,"Ġoverw":7710,"uits":7711,"ĠMichael":7712,"Ġgases":7713,"Ġorigins":7714,"âĢĻ,":7715,"Ġtrouble":7716,"ivities":7717,"ĠJoseph":7718,"alities":7719,"atial":7720,"ĠChoose":7721,"ĠBitcoin":7722,"plant":7723,"econom":7724,"Ġfalls":7725,"ĠFlow":7726,"Ġpuzz":7727,"operation":7728,"Ġreveal":7729,"Ġrhyth":7730,"Ġrivers":7731,"Ġindicated":7732,"ĠSmall":7733,"ĠUt":7734,"Ġ65":7735,"Ġchest":7736,"ĠBlood":7737,"Ġgrains":7738,"Ġfriendly":7739,"Ġhidden":7740,"ĠHyd":7741,"Ġcontained":7742,"Ġmir":7743,"Ġ150":7744,"ĠUnf":7745,"ivered":7746,"rapeut":7747,"Ġinterface":7748,"eli":7749,"Ġille":7750,"Ġminute":7751,"Ġabsence":7752,"ĠâĨ":7753,"Ġmeth":7754,"Ġion":7755,"anta":7756,"Ġtransactions":7757,"Ġpit":7758,"Ġlymph":7759,"ĠSustain":7760,"ĠSelf":7761,"Ġvisitors":7762,"Ġblind":7763,"Ġmanifest":7764,"Ġapplying":7765,"Ġtrauma":7766,"Ġshakespeare":7767,"Ġengineers":7768,"'m":7769,"ruption":7770,"Ġnutritional":7771,"BS":7772,"Ġcub":7773,"Ġcigare":7774,"heric":7775,"ideo":7776,"Ġalter":7777,"ogram":7778,"Ġpersuasive":7779,"Ġperspectives":7780,"ained":7781,"ĠSund":7782,"ĠPages":7783,"tles":7784,"Ġholes":7785,"ca":7786,"Ġelectrons":7787,"ĠBill":7788,"Ġdefense":7789,"Ġtrigger":7790,"Ġoxid":7791,"rous":7792,"Ġ1980":7793,"ĠFull":7794,"Ġinstant":7795,"icit":7796,"ĠSearch":7797,"Ġfitness":7798,"Ġpopularity":7799,"Ġengaged":7800,"har":7801,"Ġ1960":7802,"Ġadolesc":7803,"utrition":7804,"Ġemphasis":7805,"Ġaimed":7806,"ĠNetwork":7807,"Ġsubstantial":7808,"ĠDoc":7809,"ostic":7810,"atile":7811,"ĠSwed":7812,"Ġbehavioral":7813,"ograp":7814,"Ġcontainer":7815,"87":7816,"abil":7817,"Ġcham":7818,"Ġfinance":7819,"Ġgast":7820,"Ġevil":7821,".âĢĻ":7822,"Ġdim":7823,"irms":7824,"ĠEp":7825,"Ġ1970":7826,"Ġconstructed":7827,"Ġecosystems":7828,"Ġhop":7829,"ĠTor":7830,"Ġhol":7831,"When":7832,"ĠCH":7833,"Ġbiom":7834,"Ġtob":7835,"Ġmice":7836,"Ġles":7837,"ĠPolic":7838,"ĠOrganization":7839,"Ġglobe":7840,"Ġstrategic":7841,"ĠEssays":7842,"Ġlimitations":7843,"Ġouter":7844,"Ġannounced":7845,"IA":7846,"ĠBuilding":7847,"Ġcentre":7848,"Ġprotective":7849,"Ġaddressing":7850,"Ġdiffer":7851,"ĠPet":7852,"bridge":7853,"Ġqualities":7854,"Ġdrag":7855,"Ġwhatever":7856,"ĠBenefits":7857,"Ġprofound":7858,"Ġinfluences":7859,"Ġfailed":7860,"Ġom":7861,"Ġfell":7862,"ĠDou":7863,"Ġtot":7864,"ĠpH":7865,"Ġmes":7866,"Ġreput":7867,"Ġkilomet":7868,"Ġgalax":7869,"ba":7870,"quir":7871,"Ġcalculated":7872,"Ġsubsequent":7873,"illa":7874,"ĠVe":7875,"Ġinvestigate":7876,"ĠMicrosoft":7877,"onn":7878,"Ġdeficiency":7879,"ĠMartin":7880,"Ġunw":7881,"Ġgrew":7882,"MP":7883,"Ġpolar":7884,"Ġuniversal":7885,"Ġdose":7886,"astics":7887,"ĠArts":7888,"42":7889,"ruit":7890,"ĠNaz":7891,"Ġexamined":7892,"ĠNov":7893,"Ġapproved":7894,"Ġprivacy":7895,"opic":7896,"assium":7897,"Ġengagement":7898,"ĠViet":7899,"Ġscreening":7900,"ĠCC":7901,"Ġusual":7902,"called":7903,"Ġdictionary":7904,"Ġinitially":7905,"ignment":7906,"ommod":7907,"Ġhonor":7908,"ema":7909,"Ġnest":7910,"Ġassigned":7911,"onal":7912,"Ġtheoretical":7913,"ĠCamp":7914,"ĠNeed":7915,"ĠCross":7916,"Ġscan":7917,"Ġearthqu":7918,"Ġdemocracy":7919,"Ġcolonial":7920,"Ġuncom":7921,"Ġbiodiversity":7922,"66":7923,"Ġgrows":7924,"ĠShakespeare":7925,"ĠAR":7926,"Ġblockchain":7927,"Ġlegislation":7928,"Com":7929,"eries":7930,"unning":7931,"Ġrevenue":7932,"Ġissued":7933,"class":7934,"oys":7935,"Ġflag":7936,"Ġenthus":7937,"Ġsulf":7938,"Ġadds":7939,"Ġmarg":7940,"Ġethics":7941,"adder":7942,"Ġcreatures":7943,"ĠLog":7944,"Ġproportion":7945,"Ġlands":7946,"Ġbuying":7947,"Ġshot":7948,"Ġsocieties":7949,"Ġcorresponding":7950,"ĠUnit":7951,"hemical":7952,"ĠDiscuss":7953,"ĠEastern":7954,"CE":7955,"Ġneur":7956,"orses":7957,"oples":7958,"Ġampl":7959,"Ġcrow":7960,"Ġfemin":7961,"ĠPolit":7962,"ertation":7963,"Ġdefe":7964,"Ġinher":7965,"ĠDate":7966,"erving":7967,"neys":7968,"Ġsilver":7969,"ĠSymptoms":7970,"ultane":7971,"teen":7972,"Ġobservation":7973,"Ġtobacco":7974,"ĠLin":7975,"Ġ978":7976,"Ġdelivered":7977,"Ġroute":7978,"ĠRecent":7979,"Ġcarrying":7980,"Ġadm":7981,"aked":7982,"Ġforming":7983,"Ġmembrane":7984,"Ġintent":7985,"Ġearn":7986,"brid":7987,"Ġapps":7988,"ĠBlue":7989,"rine":7990,"ĠRock":7991,"Ġhistoric":7992,"ĠSection":7993,"izers":7994,"Ġdriver":7995,"ogether":7996,"Ġcontents":7997,"Ġintric":7998,"Ġpupils":7999,"Ġexpenses":8000,"berry":8001,"92":8002,"Ġfuels":8003,"Ġcharacteristic":8004,"Ġsodium":8005,"ĠProm":8006,"Ġstores":8007,"Ġcolleagues":8008,"Ġscr":8009,"ĠTom":8010,"ĠStreet":8011,"ĠAtlantic":8012,"oric":8013,"Ġdesert":8014,"ĠVitamin":8015,"Ġflows":8016,"Ġversions":8017,"yal":8018,"otype":8019,"ĠTool":8020,"Ġadditionally":8021,"Ġaddresses":8022,"Ġconsumed":8023,"Ġships":8024,"Ġwal":8025,"Ġvaccines":8026,"Ġattach":8027,"urable":8028,"Ġmanufacturers":8029,",.":8030,"asant":8031,"rier":8032,"Ġneutral":8033,"Ġbarriers":8034,"Ġpin":8035,"Ġhall":8036,"ĠPain":8037,"Ġagent":8038,"Ġradi":8039,"ĠLib":8040,"Ġmotivation":8041,"Ġaccurately":8042,"Ġalumin":8043,"Ġtwenty":8044,":||":8045,"asm":8046,"ĠRichard":8047,"Ġquotes":8048,"Ġinspired":8049,"icular":8050,"Ġcorner":8051,"EE":8052,"ĠRight":8053,"Ġauton":8054,"Ġdirections":8055,"iat":8056,"ĠPoint":8057,"while":8058,"Ġstere":8059,"Ġengines":8060,"Ġven":8061,"apse":8062,"obile":8063,"Ġmodified":8064,"rav":8065,"Ġimplementing":8066,"Ġsessions":8067,"Ġbreed":8068,"ĠGeorg":8069,"htt":8070,"Ġbringing":8071,"Ġcounsel":8072,"ĠFacebook":8073,"isdom":8074,"Ġmicrosc":8075,"ĠAcademy":8076,"gence":8077,"ĠCond":8078,"Ġfacility":8079,"âĢ¢âĢ¢":8080,"Ġepis":8081,"ĠKorea":8082,"Ġmaybe":8083,"dd":8084,"ĠTips":8085,"Ġwindows":8086,"ĠEconomic":8087,"Ġhormones":8088,"Ġstead":8089,"ourse":8090,"Ġuniform":8091,"Ġsuscept":8092,"Ġdress":8093,"ĠIss":8094,"Ġattempts":8095,"esis":8096,"Ġasp":8097,"archy":8098,"LC":8099,"Ġsciences":8100,"Ġadvis":8101,"roductive":8102,"Ġfatigue":8103,"ĠWall":8104,"Ġspelling":8105,"Ġprofile":8106,"iva":8107,"Ġunusual":8108,"ude":8109,"ĠÂ»":8110,"ĠCode":8111,"Ġcann":8112,"Ġsupposed":8113,"Ġautism":8114,"Ġhypothesis":8115,"reed":8116,"Ġgro":8117,"Ġvote":8118,"Ġdiscipline":8119,"Ġbreeding":8120,"Ġremarkable":8121,"endment":8122,"Ġindeed":8123,"Ġhealthier":8124,"ĠUnfortunately":8125,"Ġdetected":8126,"Ġchannel":8127,"ĠDen":8128,"Ġwellness":8129,"Ġviewed":8130,"Ġextend":8131,"Ġdepart":8132,"Ġtab":8133,"ĠDraw":8134,"etime":8135,"Ġexhaust":8136,"Ġweigh":8137,"Ġdisaster":8138,"Ġmortality":8139,"Ġcyl":8140,"but":8141,"Ġvariation":8142,"Ġjoined":8143,"Ġescape":8144,"RA":8145,"ĠMS":8146,"Ġclassification":8147,"Ġshaped":8148,"rane":8149,"Ġsuperior":8150,"Ġcomprom":8151,"Ġscope":8152,"aping":8153,"world":8154,"ĠFollowing":8155,"Ġthread":8156,"Ġwheel":8157,"Ġphrases":8158,"ĠExcel":8159,"ĠRetrieved":8160,"uster":8161,"Ġpassing":8162,"itarian":8163,"ĠPen":8164,"ĠHT":8165,"Ġdiscom":8166,"affe":8167,"Ġcontributing":8168,"Ġsensitivity":8169,"Ġincorporate":8170,"Ġprincipal":8171,"ĠScotland":8172,"ealand":8173,"Ġcontributed":8174,"ĠPoly":8175,"ĠCommit":8176,"ali":8177,"compass":8178,"ĠMel":8179,"Ġargue":8180,"Ġjoints":8181,"Ġpra":8182,"ĠValley":8183,"Ġnumer":8184,"43":8185,"ĠPenn":8186,"opher":8187,"ĠLine":8188,"iana":8189,"Ġsubt":8190,"Ġdestroyed":8191}