#version: 0.2
Ġ t
Ġ a
i n
h e
r e
o n
Ġt he
e r
a t
Ġ s
Ġ o
Ġ c
e n
e s
i s
n d
Ġ w
i t
o r
Ġ p
a l
in g
a n
Ġ f
Ġ b
Ġo f
e d
Ġ in
o u
Ġ m
a r
Ġa nd
i c
Ġt o
i on
Ġ d
l e
r o
a s
en t
Ġ h
c t
Ġt h
Ġ e
Ġ re
i l
o m
Ġ T
v e
Ġ l
u s
Ġ is
Ġ n
e t
l y
o l
Ġ g
at ion
â Ģ
s t
Ġ A
i d
i m
Ġb e
r a
c e
o w
c h
Ġ y
u t
Ġf or
o t
u r
Ġ S
i g
Ġ I
Ġs t
Ġ on
Ġ C
u l
v er
a y
Ġy ou
ĠT he
i r
Ġth at
s e
Ġp ro
a m
Ġa s
e l
it h
Ġc on
Ġa re
Ġa n
i f
es s
a d
Ġo r
Ġw ith
he r
o d
Ġ it
m ent
Ġ P
er s
Ġ M
Ġa l
Ġ W
g e
u n
Ġw h
t er
t h
at e
a b
Ġd e
Ġe x
o p
e ct
is t
i es
Ġc om
Ġ B
Ġ (
Ġ 1
Ġ he
i ve
u re
il l
it y
Ġ H
u m
q u
Ġ v
Ġc an
o re
es t
Ġ E
an t
Ġ D
âĢ Ļ
k e
Ġh a
i v
e m
o s
a c
e re
a in
Ġ us
Ġ F
ro m
u d
Ġ -
i al
p p
Ġc h
Ġb y
ig h
o c
Ġs u
Ġ R
l d
or t
n t
Ġ r
ic al
Ġ 2
re s
Ġa t
Ġn e
Ġf rom
Ġ le
a nd
Ġ âĢ
Ġ en
Ġs e
o g
Ġ L
ar t
Ġw or
Ġ N
Ġ G
Ġyou r
r i
Ġs h
p e
Ġha ve
ion s
p er
p t
Ġw as
Ġn ot
Ġ im
Ġth is
a ct
Ġ O
igh t
Ġa b
ou r
a g
ĠI n
in e
p l
Ġp l
us t
Ġw e
al l
d u
r ou
o st
ou t
om e
i z
Ġ u
ic h
a ge
f f
Ġin t
id e
at ed
el l
ĠT h
Ġ k
a re
g h
Ġthe ir
t her
Ġcom p
ul t
ar d
Ġa d
a k
an s
as t
Ġcon t
k s
Ġin c
ou ld
Ġ U
r u
ou s
o od
Ġw ill
ation s
e ar
c c
ve l
Ġd is
en d
he n
or m
Ġre s
0 0
Ġwh ich
i b
i p
ab le
i e
s o
ar y
r it
Ġal l
Ġm ore
Ġim p
Ġthe y
en ce
Ġd o
Ġh as
Ġt e
an ce
u al
i a
at er
on g
a p
Ġm an
in d
ent s
o o
r y
ig n
Ġc l
a ch
Ġ un
Ġ J
i re
Ġal so
ct ion
e p
re at
Ġm e
il d
a ke
Ġo ther
Ġ j
it ion
ĠTh is
ĠI t
as s
res s
as e
c es
Ġa r
or y
ic e
Ġp er
ĠW h
a v
Ġa pp
Ġs y
Ġs p
Ġp re
Ġst ud
ĠS t
Ġon e
ĠâĢ ľ
âĢ Ŀ
a us
Ġin f
Ġ qu
Ġb ut
on e
im e
Ġab out
Ġo ut
' s
an g
en s
is h
if f
or s
Ġs o
re e
ol og
a ce
ver y
ou nt
or d
Ġp art
b er
u e
Ġs c
Ġcom m
Ġp e
r ic
i ke
Ġe v
ac k
l ow
n ow
i le
Ġthe m
ay s
Ġin d
u b
Ġ2 0
o se
Ġs pe
Ġd iff
nd er
p h
Ġ K
Ġh ow
Ġ 3
am e
. .
y s
Ġm ay
if ic
Ġ Y
al th
Ġhe l
Ġf e
k ing
č Ċ
Ġw ere
ou nd
Ġus e
a il
Ġ ro
Ġc ol
it e
at es
l ud
Ġt ra
Ġhel p
op le
Ġ V
Ġit s
Ġbe c
Ġcon s
ĠC h
Ġu p
Ġwh o
c ess
re n
m s
n ing
ff ect
le ct
Ġw hen
Ġs ome
ment s
Ġint o
in t
Ġt r
l es
Ġre c
Ġa ct
Ġt ime
Ġb et
it ies
Ġo ver
ing s
m er
rou gh
ic s
al ly
st em
Ġth an
t e
Ġa cc
vel op
Ġthe se
Ġd es
l l
on s
Ġu nder
Ġpe ople
Ġne ed
Ġg o
w e
Ġk now
ver s
Ġ1 9
er v
Ġl ike
j ect
Ġm ost
Ġ ess
Ġinc lud
at ing
Ġb l
on d
Ġus ed
p le
Ġre l
i ous
Ġthe re
i an
) .
ter n
Ġsu ch
aus e
at ive
he re
Ġy ear
Ġo ur
Ġ ra
Ġp h
Ġp r
l ic
Ġa g
Ġbe en
ul ar
ro w
Ġh is
ou gh
oo k
o ve
Ġpro v
i ent
Ġdiff ere
i et
Ġpro du
ir st
o b
Ġne w
Ġde velop
et h
Ġe m
Ġg en
Ġhe alth
u c
c ial
Ġwor k
n e
Ġt w
ĠH ow
Ġ if
Ġan y
ra ct
o ol
at ure
Ġ "
at h
Ġch ild
c ed
Ġsy stem
il ity
ĠWh at
re d
Ġwh at
Ġw rit
Ġas s
ur ing
Ġth rough
al s
Ġs a
f ul
Ġad d
Ġa c
Ġman y
is e
ar ch
Ġa m
Ġp o
ĠR e
o v
ation al
Ġre g
ri b
er m
t en
Ġof f
Ġ 4
ar k
Ġf irst
Ġle ar
Ġt y
Ġw ell
Ġre p
ch n
os s
Ġex p
ra m
rou nd
ĠA s
ow er
Ġimp ort
er t
ot h
x t
Ġin v
b le
c y
as ed
he d
Ġ 5
Ġde c
ĠA n
Ġo b
we en
an ge
ĠU n
it s
if e
Ġp ers
Ġtw o
ib le
Ġex am
olog y
Ġn o
Ġsh ould
et s
f orm
ol d
i ence
Ġon ly
Ġre se
Ġh igh
Ġm ake
t ing
Ġsu b
Ġfor m
Ġbet ween
f ter
Ġv ar
Ġtr ans
Ġw ater
Ġsu pp
Ġdiffere nt
g an
Ġc o
ĠâĢ ĵ
he s
Ġ20 1
Ġd i
Ġat t
at a
ut ion
ow n
is s
e f
_ _
Ġf l
Ġe ffect
n g
Ġw ould
Ġex per
Ġp res
Ġs oc
t s
ur al
Ġs ur
Ġs m
Ġpro cess
Ġn um
Ġm od
ie w
Ġin ter
Ġdis c
Ġh ad
n ess
ak ing
er g
in es
Ġre m
) ,
ag es
ch ool
Ġwor ld
is m
e w
Ġm ed
ĠI f
Ġ ed
ic k
Ġs ign
a w
e ver
Ġspe c
ent ial
il y
ant s
Ġte chn
ĠH e
Ġin st
Ġg et
Ġ ke
Ġinf orm
Ġimport ant
Ġg ra
Ġd et
Ġb u
i ed
Ġar t
ic t
ad e
ĠP ro
ĠW e
ir on
Ġs im
Ġw here
Ġre ad
ure s
Ġre f
Ġc ar
ĠF or
ru ct
r on
in s
ce pt
f ore
it ed
p s
Ġess ay
mer ic
w n
v ent
o y
st and
Ġe ar
c on
ere d
Ġyear s
Ġw ay
iv es
Ġres p
u es
se l
Ġinc re
id ent
iz e
Ġp ol
d s
Ġ |
Ġs k
ic es
f t
Ġgen er
ual ly
Ġh um
ol low
ĠA l
Ġl ong
c k
ist s
ĠY ou
ical ly
Ġf act
Ġ her
Ġre qu
in k
s s
u ch
Ġl ife
as es
Ġd ata
iv id
Ġc re
od y
Ġc ount
ĠC om
Ġpers on
Ġc ould
Ġstud ents
Ġdo es
Ġm ain
Ġde f
Ġres ult
iz ed
Ġse c
Ġbec ause
Ġj ust
Ġe very
Ġc ent
Ġex t
Ġe ach
Ġs ol
Ġrese arch
2 0
ĠThe y
Ġle ad
al ity
Ġl ar
Ġus ing
Ġcomm un
g et
Ġex pl
Ġa fter
ĠC on
Ġp at
i qu
Ġ 6
Ġpro g
Ġm in
Ġde p
ar m
v iron
Ġ very
Ġinform ation
Ġf ound
Ġc he
Ġst r
ot her
l ed
Ġf ood
Ġev en
Ġf ollow
ect ion
Ġa ut
ĠThe re
Ġh ist
Ġstud y
Ġg row
Ġse e
Ġcon c
Ġpart ic
h ip
or k
Ġle vel
Ġchild ren
Ġin s
Ġv al
l and
e c
Ġpro ble
Ġg ood
Ġf ind
Ġc ur
ur n
Ġd uring
Ġf un
Ġch ar
d ition
Ġthe n
Ġd ist
Ġm on
Ġcomp le
Ġl oc
Ġ ent
i en
iet y
Ġa v
Ġbe ing
i vers
erg y
Ġm y
Ġc all
ĠA meric
Ġf am
Ġp ub
an y
i o
Ġo wn
.. .
Ġs et
viron ment
ak es
Ġprov id
d e
g g
Ġunder stand
Ġg l
Ġr ight
ion al
w ard
Ġapp ro
Ġof ten
Ġact iv
Ġdes ign
Ġs chool
Ġt est
ĠThe se
Ġcl ass
Ġor gan
er n
Ġs he
Ġty p
ĠT o
n ce
it al
Ġb oth
Ġc or
ivid ual
im es
Ġcomm on
Ġp op
Ġan al
Ġt reat
Ġl it
ater ial
ĠI nd
Ġp ower
l ish
at her
al e
Ġth ose
v ed
Ġwh ile
d er
Ġe lect
Ġs erv
Ġb ody
Ġsh ow
Ġm uch
Ġl ess
Ġre du
act er
Ġp ract
ĠS c
l ine
Ġ1 8
Ġst ate
ĠE x
Ġ1 0
Ġm ade
a x
Ġpro t
t y
t le
i el
c om
eth od
Ġp a
Ġb ack
Ġg u
ra ph
Ġr is
ang u
ĠA r
Ġe qu
Ġt ake
Ġnum ber
Ġind ividual
Ġst art
in al
v ing
Ġen d
u nd
Ġwor ks
Ġcons id
in ess
Ġ 7
ut e
Ġha nd
Ġ2 00
t ed
re ad
ro l
ĠW hen
Ġad v
Ġdis e
Ġc are
Ġlear n
i x
Ġqu est
en g
in ed
Ġg rou
Ġsupp ort
Ġed uc
i um
Ġsm all
Ġs ame
Ġb r
ĠA d
om en
id s
Ġen g
Ġm aterial
r al
ver n
Ġinclud ing
Ġpl ay
oc k
it ions
| |
Ġexam ple
Ġp oss
Ġhum an
Ġto p
us s
Ġd ay
ul ation
iz ation
Ġpl an
Ġsoc ial
Ġbe fore
im ate
ro du
our ces
Ġc ell
e g
Ġv is
Ġen vironment
Ġm et
d ay
Ġ 8
it ive
v es
Ġ ide
Ġe as
Ġ .
Ġprodu ct
Ġimp ro
Ġall ow
Ġen ergy
er ing
con om
ĠE ng
Ġd own
i er
Ġm ethod
Ġpro f
Ġa round
ain s
Ġbe l
T he
Ġrequ ire
in ce
ent al
ar s
Ġo cc
Ġg reat
Ġsy m
iv ing
Ġc le
c ing
ff ic
in ing
om s
Ġcon f
Ġp ot
Ġpo int
her s
Ġbe h
Ġm em
ĠI s
Ġ &
Ġ 9
Ġp ur
Ġm us
c o
Ġdevelop ment
ill s
is hed
u p
ire ct
Ġknow n
Ġph ys
pt ion
Ġc ult
Ġm ust
ĠA nd
Ġth ree
Ġcon st
Ġ Q
p ect
a j
Ġt em
pl es
as h
Ġb en
ĠN ew
Ġsa id
Ġwrit ing
Ġs er
ĠHow ever
Ġlear ning
t t
Ġb est
a ve
Ġb o
Ġc aus
ul l
g en
if y
Ġc our
t ain
ab ility
v iew
e x
Ġo p
Ġis s
b s
el s
Ġ ident
r ies
ĠR es
i od
in ation
v en
Ġm at
ur y
Ġwith in
Ġag ain
angu age
Ġd r
00 0
ro ss
ag n
Ġinclud e
re nt
i or
Ġ est
Ġprov ide
Ġn ow
Ġb us
Ġto o
1 9
Ġpres ent
Ġl ight
Ġw ant
Ġp os
ĠS h
Ġcont in
Ġpro per
Ġbu ild
Ġh y
Ġc r
Ġsign ific
Ġhist ory
Ġh ome
ivers ity
ert ain
ĠP l
ate g
re en
Ġm ark
. âĢĿ
r ation
ĠB ut
ou se
w are
iv en
Ġch ang
Ġ ve
Ġf in
ĠS p
ĠS e
Ġb ook
Ġdes c
ĠD e
Ġde m
Ġcall ed
oc i
Ġrep ort
Ġst and
en se
Ġlar ge
Ġs om
ere st
Ġf ree
Ġpl ace
our ce
Ġc ap
Ġp ar
are d
c l
ra in
Ġb as
Ġe le
a ir
Ġm ight
olog ical
ord ing
Ġch ange
Ġpro ject
ĠW or
sel f
ic le
n er
Ġadd ition
Ġme as
b ers
in c
l u
Ġgo vern
Ġwith out
u ro
ys is
Ġsa f
g er
a pt
Ġme an
Ġben ef
Ġty pe
Ġpa per
ir c
m e
Ġimp act
Ġc reat
Ġbl ood
ĠP h
Ġl and
Ġc al
Ġper form
Ġth ough
ou th
l ess
Ġe conom
i ver
w ay
c ent
ou n
Ġ 0
Ġd id
a h
as on
Ġpro m
or ies
at ic
Ġvar ious
ĠC l
an k
Ġpub lic
og raph
or n
is ion
s w
Ġa ffect
. ,
Ġp ain
Ġc ause
Ġb re
a u
ic ation
Ġim m
ĠT e
Ġde v
at s
Ġm ill
c er
h or
Ġst ruct
Ġinv ol
Ġbet ter
cc ess
t he
at ural
__ __
s c
Ġris k
Ġcont rol
Ġke ep
Ġdise ase
Ġfe w
iel d
Ġs it
Ġme ans
ĠC an
aj or
are nt
Ġs l
Ġo per
Ġpl ant
Ġan t
Ġst ill
Ġse ver
ect ed
ĠB y
os ed
Ġor der
ard s
og n
oc us
Ġbec ome
Ġd on
Ġl ow
Ġsignific ant
if ied
Ġare a
ĠO n
Ġre al
Ġm ult
g in
ro p
ĠâĢ ĺ
Ġd irect
Ġl anguage
Ġwor ds
p ar
Ġm aking
Ġen s
Ġan im
Ġint erest
Ġw omen
Ġbus iness
Ġo pp
Ġfe el
o ad
Ġbel ie
s y
Ġa ir
o id
Ġcon n
am es
Ġb ased
ent ion
Ġc ost
Ġh im
ĠW ith
Ġp ass
Ġm ar
Ġacc ess
Ġe t
Ġprog ram
Ġav ail
Ġ es
w ork
w ays
Ġl aw
Ġle g
Ġsec ond
Ġcre ate
Ġm ove
oo ks
Ġt er
Ġw ar
Ġfollow ing
u g
age ment
Ġind ust
Ġl ook
a z
Ġan other
i k
Ġpre vent
Ġpartic ular
Ġd el
ĠE n
Ġfam ily
Ġspec ific
Ġte xt
ot e
ĠS o
Ġm ajor
Ġtyp es
Ġre t
i ents
p r
1 0
Ġsever al
Ġpot ential
an ces
at or
Ġeffect ive
Ġcur rent
Ġper iod
Ġt re
Ġto ol
Ġchar acter
el f
Ġocc ur
end s
Ġn ame
er al
ent ly
Ġf ocus
Ġinv est
o h
ra p
ĠAmeric an
Ġ [
iqu e
Ġh ig
ĠC ol
Ġab le
Ġcomp ut
Ġb i
Ġapp lic
Ġob ject
Ġn on
Ġear ly
ot s
Ġd ue
l ing
Ġtreat ment
Ġo ld
Ġgrou p
Ġcon d
Ġre st
o le
Ġfun ction
âĢ Ķ
ĠA t
Ġf re
led ge
id es
Ġha pp
Ġsystem s
Ġproble ms
Ġbeh av
Ġin tern
Ġtechn ology
he m
Ġl im
Ġc ertain
Ġeduc ation
Ġc rit
l ished
Ġ1 5
pl oy
, âĢĿ
Ġl ast
b r
Ġke y
ĠO ne
p ort
b e
Ġl ist
Ġ1 2
Ġf low
Ġposs ible
Ġsh ort
Ġa ge
t on
t o
Ġf ore
Ġprof ess
iv ed
or ing
Ġhe re
ress ion
Ġp ress
Ġro le
m an
Ġg r
il ar
Ġor ig
Ġv iew
ol ution
' t
p or
ĠB e
ĠUn ited
Ġexper ience
Ġf ac
Ġanal ysis
in a
Ġavail able
Ġimpro ve
Ġproble m
Ġe l
Ġth ings
e ad
per ature
Ġother s
Ġdet erm
Ġn atural
Ġop en
Ġam ount
or th
ĠUn iversity
pe cial
er c
Ġo pt
ĠS ome
ĠI m
Ġsk ills
Ġess ential
Ġcons um
Ġcount ry
Ġv ir
Ġsc ient
ic ult
Ġm il
u ment
et ic
Ġd ra
Ġworks he
Ġagain st
c le
ĠEng lish
Ġass oci
Ġare as
Ġsu ccess
end ed
c ul
an e
Ġc irc
Ġgovern ment
Ġneed s
ĠA ll
on es
ut ure
ar c
Ġst ep
Ġlevel s
ĠO r
Ġc y
o int
Ġf il
ĠâĢ Ķ
Ġam ong
Ġwe e
Ġt erm
Ġspec ies
ur ther
Ġt imes
Ġv ol
ab or
pt oms
is ed
i ans
Ġint rodu
Ġh ard
Ġch all
Ġ ...
Ġd ig
Ġc ase
ĠD o
Ġdisc uss
am p
id ence
Ġs ince
ĠCom m
res ent
Ġcom b
Ġw he
iss ion
a pe
ab les
Ġp ost
ort un
re t
at ory
Ġwh y
o x
Ġus ually
r ist
Ġcom e
Ġcol le
f ace
op h
Ġtem perature
Ġf our
Ġ '
Ġcond itions
Ġincre ase
il ities
ĠSt ud
Ġcour se
Ġth ink
Ġmon th
os p
ut ions
Ġ i
end ing
Ġhe ad
ob al
uro pe
Ġspe cial
Ġphys ical
Ġan sw
Ġquest ions
p ut
Ġs w
Ġ Z
y m
Ġm ot
Ġr un
ir d
ic ro
Ġk ind
ĠB l
le t
Ġcell s
ĠSt ates
Ġrel ations
ĠâĢ ¢
un e
Ġyou ng
Ġunderstand ing
Ġte ac
Ġeffect s
Ġresult s
Ġs ay
op e
Ġwor d
od e
o ver
Ġinf lu
Ġknow ledge
Ġqu ality
as ter
Ġart icle
eth ing
âĢ ĵ
Ġhe art
Ġdesc rib
as ing
sy ch
Ġ ,
Ġpl ants
f ric
Ġactiv ities
Ġn et
Ġche m
th ough
Ġre le
Ġm en
Ġra d
ĠWh ile
Ġn ut
em s
Ġbe gin
Ġre ce
Ġpr im
i ation
p os
Ġen c
one y
Ġs ing
ch ie
ach ing
Ġlit er
Ġ Â
Ġdiff icult
Ġw ays
Ġb ro
Ġ =
Ġd iet
in king
ru ction
Ġf uture
Ġsub ject
Ġindividual s
Ġaut hor
Ġcont rib
Ġ er
Ġ /
om m
Ġst ory
Ġresp ons
Ġs um
Ġp ut
Ġne cess
Ġ ill
Ġconsid er
Ġg ive
ip le
Ġacc ount
Ġs ens
Ġcont ain
Ġmaterial s
du ct
Ġcomple te
Ġsym ptoms
Ġal ways
Ġcon cept
Ġne ar
i res
Ġmark et
Ġgrow th
id d
Ġres ources
ĠP r
f act
ure d
Ġstr ong
pecial ly
Ġ1 7
at ors
Ġp ast
Ġsp ace
Ġe y
Ġl ine
Ġchang es
Ġsom ething
Ġiss ues
Ġwrit e
gg est
ĠE ar
Ġpol it
em ber
r ing
b on
Ġval ue
Ġd am
Ġun t
av es
Ġon line
Ġp arent
Ġr ange
Ġto get
Ġtoget her
Ġsc ience
Ġl ot
Ġsim ilar
Ġg iven
Ġfact ors
Ġhig her
a f
Ġto day
Ġob s
Ġte am
Ġpract ice
it ing
iv ity
Ġs elf
ate ly
Ġle t
o f
Ġ z
g ed
ĠâĢ ¦
at ch
our s
Ġprodu ction
Ġ1 6
ĠU S
n ot
Ġm ind
Ġstr ateg
Ġd ays
Ġproduct s
Ġf ull
Ġt ry
ist ic
Ġcommun ity
al k
Ġwor king
us h
Ġa chie
Ġe ffic
Ġs ure
ac es
Ġlit tle
ort s
iz ing
Ġm akes
Ġcle ar
Ġfe ature
Ġt urn
ĠQ u
le ment
1 8
Ġsu ggest
Ġredu ce
Ġcount ries
ĠE urope
ore d
l er
Ġ19 9
em ic
Ġal ong
ĠA b
ific ation
ip s
Ġloc al
Ġapp ear
Ġb rain
Ġs al
o ot
ab ly
1 2
Ġac ross
ru g
Ġpre v
Ġperson al
ĠL e
ra y
ĠIn st
Ġactiv ity
t al
ĠM ed
ur ity
om es
Ġch o
Ġwe ight
Ġn orm
Ġes pecially
w w
a pp
oo king
Ġhealth y
Ġem ploy
Ġprot ect
Ġman agement
m it
Ġde ath
ĠA fric
Ġrelations hip
ire d
ict ion
Ġcont ent
Ġl oss
Ġgener al
ib ility
Ġmod el
ak en
ĠT r
Ġ ver
y le
Ġprovid es
Ġg re
Ġ $
ag ing
ĠCon t
us e
Ġdet ail
Ġquest ion
en cy
Ġs ent
à ¤
ar ing
Ġcent ury
us ion
Ġex ist
an n
is ing
Ġread ing
et y
ust om
i pp
am m
Ġpop ulation
a ut
Ġha ving
Ġlike ly
Ġs ource
Ġl ower
u ation
Ġadd ress
ere nce
un g
it her
5 0
ĠD es
Ġmed ical
os is
Ġst ress
Ġstud ies
Ġm ov
ri ed
oo se
ĠC ent
Ġb at
Ġsim ple
Ġar g
ap s
Ġ ut
Ġper cent
Ġest ab
th ing
Ġsub st
Ġf ield
Ġrec ord
Ġ1 1
n al
Ġw ide
om et
E R
Ġsoc iety
m in
is on
Ġens ure
Ġne g
Ġs am
g es
Ġtra dition
Ġcomple x
Ġf ar
ed s
ĠF r
Ġs ize
ĠRes ear
Ġrep resent
ĠG o
ĠA cc
ĠY our
en ces
Ġunt il
Ġpress ure
ĠHe alth
Ġserv ices
Ġc ases
er y
an ced
Ġrec ogn
re am
Ġind ic
Ġmill ion
Ġrel ated
Ġ1 4
Ġt ru
Ġexper ien
Ġcor re
Ġl ive
Ġto ward
ut es
Ġmain tain
Ġhelp s
l ight
Ġpat ients
le ep
Ġso il
ĠM an
Ġne xt
f er
Ġpop ular
an cial
Ġs ide
ust ain
it es
ĠN e
Ġpr int
Ġso ft
Ġb ig
ĠWor ld
Ġr ate
Ġm ach
ĠS y
ra ms
ou ra
Ġcan cer
ĠN ational
f or
Ġstruct ure
Ġf und
ver age
ac y
ab et
Ġpre d
Ġph ot
Ġmethod s
Ġbe low
Ġbenef its
Ġassoci ated
âĢ ¦
Ġfre qu
ĠI nt
ĠA fter
ĠCh rist
Ġab ility
Ġchall eng
ĠA m
ĠTh at
a e
b y
ĠH ere
Ġgo ing
Ġre ason
Ġre act
N A
Ġconsid ered
Ġh ouse
Ġrese arc
n ces
Ġde g
Ġgl obal
Ġwhe ther
Ġsur face
Ġcon dition
Ġex erc
ĠG en
ĠD is
Ġd oc
Ġst at
Ġa way
Ġst ates
Ġ3 0
Ġinter act
Ġcol or
Ġeng ine
as k
Ġab s
Ġen ough
Ġd og
ĠG od
Ġf ri
ist ics
ib r
ĠO f
Ġle ast
ĠWh y
Ġf urther
oh n
Ġre view
ĠM ore
e e
Ġ20 2
Ġb ir
Ġm oney
Ġm ass
Ġab ove
Ġsing le
Ġappro ach
Ġv ide
m ost
ur s
. "
Ġc ru
Ġcomp any
Ġrec omm
Ġp ay
Ġacc ording
Ġopp ortun
Ġhow ever
ĠB rit
Ġfl u
Ġl ay
Ġcom es
ound s
Ġqu ick
Ġg e
is es
Ġcomput er
Ġp sych
Ġass ess
Ġl ater
ĠAs s
Ġdevelop ed
ĠU s
Ġp age
om an
pl ic
ĠL ear
Ġ ur
Ġn ature
ĠC O
c hes
Ġmod ern
ic ial
ĠG erm
Ġbehav ior
i ol
Ġpol ic
Ġeas y
Ġmean ing
ne y
il t
Ġ1 3
Ġs ays
s ide
Ġav oid
ĠS he
ic les
Ġworkshe ets
Ġcomp on
Ġj our
Ġst e
ĠC ar
Ġeconom ic
Ġnecess ary
Ġsk in
Ġf at
1 7
Ġdef in
Ġb al
ed i
u le
sel ves
ot t
ĠD r
Ġinclud es
Ġem ot
ĠP re
ĠRe ad
l oad
Ġpart s
ĠM ar
Ġre d
ĠS u
Ġre ally
am in
Ġin it
p ose
ch an
Ġpro te
ĠE m
u fact
/ /
Ġle ft
ren g
Ġstud ent
iv il
Ġcre ated
ro ll
ore s
Ġess ays
r ast
Ġindust ry
Ġc ut
n am
ell ing
Ġ vers
Ġvar iety
ĠW ar
Ġw ind
ect ions
en ing
Ġcol lect
Ġchem ical
Ġcl imate
Ġg round
Ġc ustom
ly ing
Ġcaus es
Ġev ent
Ġd rug
Ġs un
: //
Ġhist or
Ġf all
ĠM e
iv al
Ġwh ite
Ġc ity
Ġre v
Ġwrit ten
Ġne ver
Ġrequire d
Ġm ental
Ġint eg
al f
Ġpos itive
Ġo il
g est
ĠA pp
Ġident ify
ep end
Ġdis ord
Ġp ort
r ate
b ol
m ing
le y
ĠA ct
Ġgrou ps
Ġanal y
Ġd om
Ġbuild ing
Ġcult ure
on t
her n
Ġd one
Ġe ff
it ation
ove red
er ous
ograph y
Ġthrough out
Ġj ob
ĠS oc
Ġhe at
ĠIn tern
ac c
Ġcol l
Ġanim als
and s
Ġfin ancial
Ġm icro
Ġcle an
o k
ver se
Ġvar i
z e
Ġl iving
ast ic
Ġtra ining
Ġwee k
i am
Ġrel ig
re me
um p
ol es
Ġbl ack
Ġg as
it ud
Ġide as
Ġf ive
1 1
on st
Ġmeas ure
Ġconc ern
Ġpr inc
a im
Ġter ms
al es
Ġcl ose
Ġpartic ip
ens ive
Ġmus ic
Ġc op
read y
Ġc e
Ġg reen
se qu
Ġide a
Ġh old
iqu es
Ġact ually
Ġun ique
Ġobs erv
ĠM any
ĠG u
Ġenvironment al
g ing
b ased
Ġincre ased
Ġse en
ra d
Ġc at
ĠH ist
Ġme et
ĠInd ia
Ġk ids
Ġs ources
Ġad ult
Ġreg ular
Ġpat tern
ĠE ss
um e
I D
au gh
ac ks
ric t
ar r
Ġcrit ical
Ġp ath
p ro
rap y
Ġb ar
3 0
ĠP e
Ġmed ic
Ġtool s
Ġbas ic
Ġs ite
c ient
ĠC al
Ġche ck
Ġe mer
ĠN o
Ġwho le
Ġcar bon
end er
idd le
Ġwe bs
Ġl ove
ĠAmeric a
Ġas k
Ġ1 00
ĠG e
Ġm or
E S
Ġan n
en n
1 6
Ġelect ric
Ġst reng
Ġar ch
y l
r ated
ron ic
Ġsaf e
Ġe ither
Ġserv ice
Ġperform ance
Ġprodu ce
ĠS outh
Ġpolit ical
Ġal ready
Ġn ational
ct ions
Ġdesign ed
le x
g ar
Ġen h
Ġus es
ĠM ay
er ve
Ġ :
Ġexam ples
ail y
Ġreg ard
Ġbre ak
Ġs leep
s h
ĠResear ch
Ġallow s
Ġs ustain
Ġsu per
A T
ĠF rom
Ġfe ed
Ġf ish
Ġmed ia
o on
ĠCom p
ri pt
ul es
Ġse lect
Ġcon duct
Ġdo ct
a i
Ġb ooks
ight s
Ġrem ain
c ies
Ġneed ed
Ġl if
Ġoff er
Ġansw er
Ġl ives
Ġon ce
Ġshow s
ub lic
Ġman ufact
ĠF e
l ike
ien cy
he t
A S
ĠEar th
ĠW rit
Ġsaf ety
Ġincre asing
du c
m a
Ġe th
Ġr ather
Ġright s
g o
1 5
Ġh ab
ol l
Ġf ail
v ant
t ies
on se
h ing
Ġa ction
Ġto tal
m ber
Ġresearc hers
Ġdra w
Ġfam il
Ġt aking
ap ter
Ġl ab
ĠJ ohn
Ġf ru
Ġet c
u ed
Ġas pect
pl ace
Ġpre c
hen s
ap an
Ġhy d
p ly
Ġh arm
ve re
Ġcommun ication
ist ance
ĠM ost
Ġcru cial
Ġcaus ed
ill ed
Ġt aken
Ġt ar
Ġse par
abet es
et er
Ġpro b
ĠR ep
Ġbec ame
ĠA ust
es e
Ġexpl ain
Ġev idence
Ġp ie
Ġparent s
Ġpub lished
Ġm ath
Ġmem bers
Ġdi agn
u el
I n
Ġ X
ĠT ra
Ġcan not
en e
Ġse x
Ġh tt
Ġo x
le ase
Ġe at
Ġs ense
Ġent ire
Ġexper im
Ġgra de
ive ly
Ġw in
h y
re g
m on
eng th
Ġcomp an
Ġthe ory
Ġnum bers
Ġthough t
Ġl ink
ro om
Ġprim ary
in ary
ĠAcc ording
Ġdiffere nce
ĠN orth
ac ed
ag ed
A R
Ġtechn iques
Ġtop ic
Ġme chan
Ġf em
Ġe ver
w or
Ġs at
ĠK e
Ġele ments
Ġcomp et
p ri
Ġmonth s
l or
ap ers
h at
al ing
s is
ĠC o
Ġcons ist
ĠP er
Ġb ra
Ġpr iv
Ġsp read
ĠSc ience
Ġg ain
a ff
Ġa ud
Ġh ours
Ġmult iple
n ov
Ġa p
Ġm agn
Ġfood s
, "
Ġdam age
Ġpos ition
Ġst op
ĠC ons
row n
Ġthem selves
Ġt ell
Ġcont act
f ect
Ġd est
ac hes
Ġde ep
1 4
Ġref er
Ġstand ard
Ġ2 5
m ar
Ġnew s
Ġpol l
Ġsh are
Ġsu ff
h old
v al
Ġf ace
Ġev ents
Ġcorre ct
av ing
t ers
Ġreg ion
Ġatt ention
re l
Ġreg ul
Ġachie ve
Ġl og
Ġe p
Ġfeature s
o or
ri or
h ib
as c
Ġvide o
y p
Ġev al
Ġapplic ations
ĠD ep
it ution
Ġtradition al
Ġem b
ful ly
ĠA re
Ġl a
Ġmat ter
u ra
Ġimport ance
Ġfor ms
Ġsoft ware
Ġqu ant
Ġvir us
Ġ5 0
ĠE duc
Ġtra vel
Ġgu id
os ing
n ers
it ary
Ġ x
Ġa im
Ġresp ect
il s
Ġimp lement
Ġar r
uc k
Ġpur pose
Ġf ig
Ġret urn
Ġf ire
ron t
Ġb acter
ve y
h ood
Ġdig ital
Ġsym bol
Ġd aily
ow s
ĠG ra
ĠAl though
l ation
Ġover all
Ġgu ide
en ed
Ġenc oura
Ġresp onse
Ġneg ative
Ġiss ue
Ġv iol
Ġprofess ional
is ions
ĠS chool
Ġdeterm ine
ĠAr t
i pl
e xt
ren ch
Ġadv ant
Ġsm o
ĠO ur
I N
Ġorig in
Ġexp ress
Ġ19 8
Ġp an
j oy
r ial
ĠU se
Ġl ooking
h ol
Ġlong er
ut ed
d ing
Ġtyp ically
Ġrec ent
Ġdev ices
Ġp ict
Ġprev ious
Ġsec urity
ce ll
Ġnorm al
g round
1 3
Ġw ood
Ġbr ing
Ġup on
ĠS ec
Ġprovid ed
ĠRe g
ĠJ apan
Ġth ing
b o
at ives
ĠP art
ĠIn c
Ġdist rib
ĠN ot
Ġdise ases
Ġpoint s
it or
Ġmin im
Ġsome one
ar ies
Ġac id
Ġin j
Ġpro p
Ġy et
or g
Ġh alf
er ation
ĠO ther
Ġv it
Ġa ware
Ġapp l
Ġut il
Ġdevelop ing
Ġf arm
Ġal most
Ġc ra
Ġl at
ric ult
Ġim age
Ġsh own
it ute
ĠF irst
Ġgener ally
Ġprocess es
ĠWor ks
Ġde b
Ġlead ing
Ġse arch
Ġit self
Ġnet work
Ġwas te
art ment
Ġpre p
Ġappro pri
st er
Ġear th
Ġext ra
Ġmove ment
Ġex c
ir m
o ber
Ġa verage
Ġcult ural
Ġco ver
Ġb ur
Ġcreat ing
Ġcont ains
ĠA I
Ġexpl ore
Ġeas ily
as ons
Ġprog rams
Ġsol ar
Ġe c
Ġsim ply
ur ch
Ġsom et
Ġg ard
Ġb ab
imate ly
Ġpat ient
Ġapplic ation
Ġd y
Ġt akes
Ġtoward s
T h
Ġl ed
Ġget ting
Ġth inking
Ġs ound
em pt
Ġth reat
Ġve get
ter y
Ġs ix
Ġteac hers
Ġext reme
min ist
Ġval ues
Ġ â
Ġs ection
ĠA c
O N
d om
Ġgrow ing
Ġst ra
Ġ2 4
Ġcal cul
Ġte aching
an a
es tern
c are
____ ____
um b
Ġtru e
Ġparticular ly
ĠP ar
Ġrel ative
Ġp ages
Ġal tern
k now
Ġref lect
Ġs qu
e ch
ip ment
Ġdoc ument
Ġsur v
ar ily
ens ion
Ġser ies
Ġt ax
Ġschool s
Ġ ir
Ġconc ent
b ook
Ġgre ater
Ġg ame
Ġv acc
Ġhe av
n a
ol ic
iz es
Ġdo ing
il os
ad es
r im
uc le
I S
Ġprovid ing
Ġen joy
Ġcl aim
Ġst ay
Ġwe b
ers on
ĠTe chn
Ġsomet imes
Ġs low
ĠG l
Ġprodu ced
re hens
Ġcompan ies
Ġdem onst
Ġexerc ise
Ġac cept
Ġbelie ve
Ġind epend
Ġinvol ved
f ort
it able
Ġch oose
ĠK ing
ri ption
2 00
Ã ©
ĠI I
Ġsol ution
Ġinflu ence
ĠCh ina
ĠBrit ish
ĠO ver
Ġsupp ly
ĠM y
ĠH is
Ġt ree
Ġt ur
Ġdec re
Ġanim al
Ġrequ ires
ad a
Ġl ack
Ġac ad
Ġt it
Ġd iv
Ġquick ly
ĠU nder
pl ay
Ġc apt
iss ions
c hed
Ġchalleng es
Ġinf ection
ĠSt ate
Ġprog ress
Ġey e
Ġf ram
Ġliter ature
Ġpro ced
Ġc ivil
Ġb ill
ter m
Ġfor ce
Ġinvest ig
iz ations
Ġd ry
r ical
Ġrem ov
Ġr out
Ġc ame
le ction
ĠM in
Ġscient ists
ĠAust ral
olog ies
it ch
Ġwebs ite
al y
ĠN ow
Ġoff ers
on y
Ġdi abetes
b an
Ġins ide
Ġpract ices
Ġm ess
Ġw ild
ĠCh ild
Ġbu ilt
) :
land s
ĠA ut
Ġcontin ue
Ġf ul
ĠW ill
r s
Ġscient ific
Ġf ast
ist ry
6 0
Ġser ious
Ġhum ans
Ġass ign
Ġan cient
Ġprote in
Ġt able
itud e
g n
Ġintern ational
is ter
Ġm ole
r or
Ġspe ed
ĠP res
ol ar
co hol
an cy
is ms
in o
Ġd ang
Ġbe gan
ir ing
Ġaut om
ĠL et
or por
Ġa ff
ĠHist ory
b re
Ġuse ful
Ġconn ect
Ġad apt
Ġs il
Ġcompon ents
Ġcont ext
Ġw arm
id er
Ġst yle
it er
Ġinclud ed
ver t
ĠM od
Ġstart ed
Ġorig inal
Ġtop ics
Ġan g
Ġc ode
Ġdec ision
ne w
av or
Ġc ard
Ġp rior
A N
form ation
Ġyour self
Ġcomp ared
Ġdoes n
Ġc it
Ġtrans port
ro gen
ĠS im
ĠEss ay
Ġstrateg ies
ell ig
Ġstep s
ĠE d
Ġf oot
Ġob tain
l i
Ġb all
Ġno vel
Ġp ack
Ġre ve
Ġex act
Ġhigh ly
an ks
Ġeffic ient
ĠF in
Ġdem and
Ġlead ers
m b
Ġaddition al
l s
Ġbegin ning
Ġvis it
Ġ19 7
if t
ud d
Ġtoo k
Ġequ ipment
Ġd ou
ĠT w
Ġl ength
Ġstreng th
Ġ +
Ġcent ral
Ġag o
Ġbe aut
Ġ #
Ġt iss
Ġm other
Ġc oun
Ġproper ties
Ġbu y
Ġh ar
Ġ20 20
ĠS m
ĠD uring
Ġappropri ate
in ct
Ġw all
Ġout side
Ġspe ak
Ġmach ine
O R
Ġcommon ly
Ġn ight
Ġbl ock
is c
Ġpo or
ĠA g
in ks
ĠAd dition
Ġf ib
Ġse vere
Ġf it
ell ow
Ġc ross
Ġintrodu ction
hem at
Ġvis ual
Ġs n
c ome
Ġp apers
E N
Ġstate ment
it ect
Ġcomm it
Ġdirect ly
Ġth ird
i us
Ġcost s
Ġc red
Ġc ry
Ġsu gar
ed eral
Ġve h
rough t
it is
Ġb ad
Ġadd ed
Ġan x
Ġse em
ĠSy stem
m y
Ġin nov
Ġus ers
Ġcl in
ĠC ount
Ġtre es
Ġte eth
ĠJ an
Ġle aves
Ġexp os
i ples
Ġthe rapy
Ġfore st
Ġbro ad
Ġatt empt
o es
Ġact ive
ĠD ay
ĠTr ans
Ġb ase
Ġinter p
ord s
Ġad j
I C
id ge
Ġb it
erv ation
Ġorgan ization
Ġtar get
Ġh ot
Ġinst ead
Ġopt im
Ġlar gest
ou d
am ed
r ight
Ġm ix
n ed
Ġl ate
Ġform at
Ġinst all
Ġon es
Ġdev ice
Ġpolic y
Ġsp ir
Ġt ri
. )
Ġsam ple
Ġl o
ĠP a
Ġt end
ĠEduc ation
Ġbeh ind
ĠWorks he
Ġfri ends
c ks
p id
Ġcap ac
ur ies
Ġinvol ves
as ks
2 5
Ġb reat
ĠF rench
4 0
Ġsit uation
u ge
Ġproject s
ĠAl so
Ġconst ruction
Ġsh ape
Ġcolle ge
ĠEx am
h a
ed ing
Ġe ating
Ġpl at
Ġcommun ities
E D
ul a
om ing
Ġnut ri
Ġun it
i ot
Ġa st
Ġexp ect
Ġf a
Ġcho ice
ĠB ec
Ġim ages
Ġleg al
Ġg ames
Ġe gg
Ġqu ite
ĠE ach
Ġpr ice
Ġ *
r an
- -
u ments
Ġ iron
Ġper fect
Ġlar ger
Ġ2 1
ĠDe velop
u ous
ĠA nt
Ġgo al
b ack
p ite
Ġoff icial
e qu
he l
Ġ4 0
ĠS w
Ġc ool
Ġm om
Ġcap ital
Ġf ile
os y
Ġreport ed
Ġatt ack
Ġse a
Ġl abor
Ġc amp
ĠAfric a
Ġprot ection
Ġce le
ie f
Ġthere fore
y ond
Ġbehav i
Ġus er
ĠInd ian
i able
Ġdoct or
an ish
Ġc ateg
Ġem p
Ġcomp rehens
ĠCh ar
ĠG ree
Ġmin utes
ĠA ug
o ly
Ġlim ited
ĠEurope an
Ġdiffere nces
Ġfe et
' re
Ġre asons
Ġst age
t ime
ĠAfric an
Ġcol d
am b
Ġre ach
Ġha ir
Ġbir th
w ise
at t
ĠH igh
Ġadult s
he st
iel ds
os ition
Ġh or
g y
l ies
Ġn ation
Ġmod els
Ġ Ð
Ġit ems
Ġfun ctions
ac hed
Ġg ives
ĠM on
ax im
w ater
ĠY ork
vent ion
om y
Ġele ment
Ġd ark
Ġloc ated
Ġprom ot
ĠD i
Ġcolle ction
ĠS ince
im in
Ġg old
l amm
Ġad op
Ġimm edi
Ġm iddle
Ġcommun ic
ibr ary
u it
Ġteac her
ĠPe ople
Ġopt ions
Ġ ult
i ar
Ġtest s
ce an
ĠH er
res h
v est
Ġst ru
Ġr ich
Ġrespons ible
w h
Ġse ason
ens ity
ĠE l
Ġacad emic
Ġconc l
Ġins p
Ġnut rit
Ġd at
r ig
Ġless on
Ġpur ch
Ġcont rast
il es
ut h
ĠG et
s et
Ġgo als
Ġmeas ures
Ġph ilos
Ġr ates
Ġro b
Ġhistor ical
Ġtest ing
Ġsur round
ĠH el
Ġconf lic
ffic ient
Ġgra ph
gen cy
Ġsol utions
ĠB u
ĠStud ents
Ġest im
Ġdefin ition
Ġmem ory
Ġcomp ar
Ġsign s
Ġbal ance
Ġinit ial
Ġn ucle
Ġal cohol
Ġass ist
ĠW ater
Ġs us
Ġj o
Ġpower ful
Ġr ules
Ġl ines
m ission
Ġestab lish
ĠAn other
op s
ĠF ree
ines e
ĠPh ys
Ġbec omes
Ġestab lished
Ġcol on
Ġaspect s
he ad
ĠM us
Ġeconom y
Ġro ad
Ġh ost
Ġpattern s
Ġproper ty
c les
Ġag ree
um an
stand ing
Ġde al
Ġconst ant
Ġag ricult
Ġbacter ia
od ies
ĠR el
r ong
u ary
Ġd er
Ġf ight
Ġnot e
Ġhy p
Ġcon sequ
Ġth us
Ġevery thing
al king
Ġevery one
Ġfamil ies
Ġth ous
Ġdep end
Ġexperien ces
Ġf ra
Ġhand s
Ġpo ly
o very
Ġrequire ments
Ġqu al
Ġloc ation
ĠCl ass
Ġoccur s
Ġ201 8
Ġf inal
Ġhab it
Ġm ob
Ġaffect ed
pp er
Ġey es
ed ia
Ġsc reen
Ġcharacter istics
r ates
Ġd ate
ĠGerm an
Ġ2 2
Ġm is
Ġt alk
Ġs ch
el t
A C
Ġwe ather
Ġobject s
Ġmil itary
ĠE ven
ill ing
Ġsh ap
Ġs old
Ġro ck
o e
ĠA pr
Ġwee ks
Ġeduc ational
Ġim ag
ĠR uss
ĠB i
Ġacc om
w here
Ġf uel
Ġdetail s
ĠR ed
at ur
cept ion
ĠH ar
Ġanx iety
ph as
se ct
Ġra pid
Ġcar ry
w ide
ĠSoc ial
Ġw a
Ġsuccess ful
Ġacc ur
hes is
Ġdeg ree
Ġres id
est s
Ġeval u
t ical
âĢĿ .
ĠO ct
Ġthe sis
Ġad minist
Ġsit u
Ġmet al
Ġal though
b it
Ġb ul
Ġg ot
Ġopportun ities
ĠD ef
Ġv ia
rom e
l ier
Ġprob ably
Ġrecomm end
ĠBec ause
I T
Ġp en
Ġcont roll
Ġso on
Ġb orn
ĠO nce
Ġp ow
an c
est ic
Ġpre gn
Ġrece ive
Ġrem ains
W e
ab ilities
Ġse qu
b or
Ġres ource
ĠC he
Ġspe ech
Ġpers pect
Ġro om
Ġst ories
ĠJ u
Ġte ach
ĠIntern ational
Ġdef ined
Ġk id
ĠThe n
Ġlaw s
ĠQu est
Ġinst ruct
p an
Ġk ing
Ġbenef it
ĠPro f
Ġpl aces
Th is
ĠF l
Ġt ask
2 2
Ġa meric
Ġr ise
Ġhealth care
or ation
Ġvir t
Ġf ather
Ġf ront
ĠInst itute
ien ces
og en
Ġdisord er
Ġv ary
Ġcon vers
i ate
ĠComm un
Ġu nd
Ġbab y
Ġr at
ag raph
Ġenh ance
Ġstand ards
Ġsignificant ly
Ġ201 7
Ġworkshe et
Ġopportun ity
ing u
Ġplat form
ĠUs ing
und red
y d
Ġm ount
ul ate
Ġact ions
Ġj oint
Ġprofess ion
Ġconcept s
ul ations
Ġ201 9
ic a
ĠPro g
Ġra in
rodu ction
Ġs ect
oc ks
Ġresp ond
Ġcent er
y gen
ĠJ ew
Ġj ud
Ġdescrib ed
Ġfact or
ch ing
Ġredu cing
o ice
or age
Ġint ellig
Ġac qu
Ġdec isions
ĠThere fore
Ġeffective ly
ĠEx pl
Ġcontrib ute
Ġequ al
Ġgard en
re es
Ġtra de
Ġarch itect
k y
s on
s es
Ġ ing
Ġra re
Ġeffic iency
Ġarg ument
Ġc ou
Ġconsum ption
Ġbelie f
Ġg ender
ub e
Ġbas is
ĠS pe
Ġpriv ate
Ġill ness
act ers
ĠS erv
ĠR em
ere nces
il le
m ary
st e
ww w
Ġset t
ire ction
Ġlet ter
ĠBl ack
Ġm axim
um n
Ġst ri
ĠJ ust
m ore
ĠS ub
Ġ2 3
Ġimm une
Ġnum erous
m osp
8 0
Ġhe ld
Ġgra du
Ġlim it
en ge
Ġdis play
an cing
i os
Ġill ust
Ġexp ected
Ġv ital
A L
ĠLear ning
Ġl iqu
ar ian
Ġto wn
ogn itive
ĠAddition ally
Ġcoll abor
Ġde ad
Ġis n
Ġt ips
ĠG reat
Ġsustain able
ind ing
Ġm ention
Ġemot ional
Ġeas ier
Ġex cess
Ġjour nal
Ġbe yond
Ġsc ale
" .
V ID
e es
Ġabs or
S t
Ġex ec
ĠD ata
Ġcapac ity
Ġtechn ologies
Ġappl ied
Ġplan ning
ĠNew s
Ġent er
ra ft
pt ember
Ġstru gg
Ġm al
be ing
Ġ19 4
Ġd ivid
ĠC ur
Ġro ot
ĠM arch
if orn
ur ance
ĠThe ir
ĠB ar
Ġrelationship s
Ġinst ance
se c
l im
ri ef
Ġn ames
ast e
Ġinst ru
Ġdec l
Ġrem ember
Ġris ks
ĠP at
Ġant i
ĠW est
Ġsmall er
ĠT H
Ġb ott
ĠIn ter
Ġrelig ious
Ġpl ans
Ġal g
Ġprocess ing
augh t
re c
ĠPl an
u able
Ġc am
out hern
Ġorgan izations
b all
tern al
Ġf air
ĠB o
Ġcomplete ly
Ġex cell
l ife
Ġmus cle
od es
Ġp et
Ġpred ict
P A
ĠSt ep
Ġtrans form
Ġs we
Ġpie ce
Ġwork ers
Ġw ond
ul um
b l
Ġem phas
oph y
ĠE very
Ġpl astic
Ġst im
Ġt asks
ĠD ec
Ġclass room
Ġsum mer
Ġman age
Ġstruct ures
c il
Ġcit iz
Ġl oad
ĠCh inese
Ġinc ome
Ġ201 6
Ġatt ract
Ġfru it
Ġs outh
u k
Ġhtt ps
Ġchar acters
Ġt ou
i ra
Ġtechn ique
Ġdrug s
id ed
Ġl ost
Ġcomm er
Ġm iss
ĠCent er
ĠE lect
r m
Ġset ting
ort hern
Ġeff orts
ĠP ol
Ġplan et
Ġ- -
Ġref ers
Ġwh ose
ag ram
Ġbo x
Ġf ear
iforn ia
Ġtry ing
og le
el ines
Ġspir it
er o
Ġgo es
Ġold er
Ġtrans fer
ĠL at
z z
y pe
or ial
Ġcurrent ly
Ġinc orpor
ĠJ es
ĠD on
Ġh undred
Ġf resh
angu ages
Ġv ict
Ġbe g
Ġpres ence
E C
Ġappro x
ĠJ our
plic ations
Ġcele br
Ġres istance
b al
Ġwor th
ru pt
Ġany thing
Ġsa ve
ĠCon st
Ġdet ect
ĠV al
m ed
y ear
Ġconst ruct
mit ted
Ġprinc iples
Ġbl ue
ĠM at
ĠT est
im ens
Ġcy cle
Ġref erence
Ġg ir
Ġindust rial
ce ed
Ġincre ases
Ġro t
us ed
Ġup d
Ġdisc over
Ġdep ending
Ġ6 0
Ġexpos ure
Ġdown load
Ġh ope
Ġcont ract
ĠSe e
know n
Ġrev olution
i ers
Ġinterest ing
Ġw on
Ġor d
os es
Ġadj ust
a res
Ġm outh
S T
s p
Ġ201 5
Ġredu ced
h ors
ĠJ une
Ġapp e
Ġsit es
ĠEng land
Ġfem ale
Ġh osp
Ġart icles
Ġf ert
Ġgen etic
ĠLear n
2 3
Ġ201 4
if ically
h aps
Ġel se
Ġdisord ers
if ul
Ġwide ly
ĠU K
Ġprom ote
ĠIt s
Ġn orth
ash ing
ĠAug ust
for ce
i ance
ib ly
ch ange
Ġf ix
Ġfund am
Ġexper t
oc ol
Ġdisc overed
ĠB ook
ĠFe b
I t
ĠS ur
Ġform ed
Ġfollow ed
ĠApr il
Ġvers ion
Ġox ygen
Ġdescrib e
Ġr ule
ĠB ra
Ġn arr
Ġbusiness es
Ġwe ak
Ġw oman
ĠV ir
ond s
Ġd irection
ruct ure
Ġapp ly
Ġ201 3
ĠD NA
Ġmon it
Ġfri end
ĠÂ ·
qu e
Ġrece ived
Ġ19 6
Ġvol ume
Ġag g
ĠS ch
ĠT od
ĠAmeric ans
Ġintern et
Ġeff ort
Ġwin ter
wor ks
Ġassess ment
Ġstat us
ĠDep artment
ĠCan ada
I V
Ġb rought
Ġm o
ĠCO VID
Ġat mosp
Ġelect rical
Ġhigh light
Ġmat hemat
Ġadv anced
Ġdist ance
Ġ Ã
Ġem issions
Ġlay er
Ġaltern ative
Ġdis s
Ġt en
Ġbir ds
ĠOr gan
Ġrele vant
al ed
Ġm ap
c an
Ġtr ig
Ġtr ust
Ġtr ial
Ġp hen
ed om
Ġn amed
Ġsy nt
Ġfrequ ently
Ġo ption
Ġv oc
h ouse
Ġnot es
ĠWill iam
Ġexp and
iven ess
Â °
Ġle ave
Ġsent ence
Ġ ice
ĠEn vironment
Ġp ric
Ġpar agraph
Ġident ified
Ġste el
ĠM ake
Ġst orage
Ġrem ove
Ġfam ous
Ġh on
d f
ĠAb out
Ġdi vers
ĠChild ren
ĠC or
ĠIn f
ĠCal ifornia
Ġelectric ity
Ġse ems
Ġs on
Ġreact ion
ĠWh o
Ġch apter
ĠWh ich
re te
Ġback ground
ĠWrit ing
a ur
ĠA v
Ġdog s
2 4
Ġdep ression
ic o
Ġfil m
nd s
Ġreg ions
Ġop in
Ġful ly
Ġdist inct
h am
ce mber
ough t
Ġ202 1
pos es
Ġb ound
Ġconn ected
Ġoper ations
Ġp ul
Ġm id
re w
Ġextreme ly
m at
Ġpre par
ĠAustral ia
Ġmom ent
Ġh ous
Ġto x
Ġh un
Ġmem ber
Ġco ast
Ġrecomm ended
R E
ĠN et
ĠR oman
Ġsp ect
Ġw el
ific ial
ĠJes us
c ast
Ġre pl
Ġt our
ĠSe ptember
ri e
Ġs and
Ġpict ure
ul f
ul ated
Ġem ail
Ġfor ces
ric ulum
ĠAss oci
Ġclin ical
ĠF urther
Ġconn ection
Ġtiss ue
Ġw ent
Ġfact s
il it
Ġb ed
ra w
Ġchang ed
Ġexist ing
ĠChrist ian
Ġgl ass
Ġproper ly
om a
ro te
Ġt im
Ġstart ing
ĠSp anish
Ġnear ly
ra b
h ab
le v
Ġmajor ity
ove mber
Ġcreat ive
gy pt
ĠC our
f erence
Ġbill ion
Ġev olution
Ġsol id
Ġconcl usion
ĠS am
Ġregard ing
oc r
Ġle tt
Ġto oth
ĠTh rough
id ing
Ġ2 6
ĠF ood
Ġide al
Ġcommer cial
Ġw atch
ĠGo vern
Ġ2 8
Ġst ore
Ġmot or
Ġtemperature s
Ġth r
Ġg iving
Ġpl ays
Ġcomb ination
Ġgener ation
as ive
c king
Ġd en
Ġc ore
Ġorgan ic
c rib
ĠD iff
Ġal one
c ious
in y
W hat
ĠM ark
res p
ĠO b
Ġhapp ens
Ġexcell ent
Ġ201 2
Ġcom fort
Ġinf ections
ĠJan uary
Ġexper ts
S S
Ġn av
osy stem
Ġn ative
C h
.. ..
Ġ2 7
Ġallow ing
Ġstrateg y
ĠR iver
un ction
ĠSu pp
Ġread y
Ġinf lamm
ent y
ĠPro t
Ġland sc
ĠGerm any
Ġbec oming
ur ation
Ġmov ing
Ġengine ering
Ġtit le
Ġm ig
c he
ĠJu ly
et ry
op y
Ġd ed
ur g
ĠB as
Ġexperim ent
v ious
E T
un ch
ĠD av
Ġdistrib ution
Ġcop y
er a
Ġh orm
Ġjour ney
ric k
c ular
Ġansw ers
Ġcomprehens ive
ro s
Ġbo ard
ic ip
Ġmedic ine
ĠJour nal
ag s
Ġnutri ents
l a
im ent
Ġl anguages
Ġpre fer
Ġf ields
Ġadv ance
l am
Ġf ederal
Ġcomm and
ĠO ut
ĠF orm
Ġfor ward
Ġout put
Ġp lease
f ord
n es
Ġre pe
Ġhig hest
um in
ress ive
Ġpoll ution
Ġch ronic
Ġf avor
9 0
ot es
ĠL aw
Ġsex ual
Ġmin ing
rel ated
Ġse eds
Ġcom ing
Ġch ance
Ġser ve
Ġsa w
ify ing
Ġpresent ed
ur t
p art
er ate
Ġask ed
E M
Ġrefer red
por ary
Ġdat ab
Ġmil k
Ġf lex
Ġcons ists
w rit
ĠD own
Ġval uable
Ġchall enge
ĠWe b
Ġinflu en
ol id
Ġvis ion
A M
Ġreport s
Ġur ban
Ġmot iv
Ġpract ical
ond on
Ġsh all
Ġrelative ly
ar a
l in
ig en
Ġcr us
om b
Ġant ib
p ing
z ing
Ġbelie ved
Ġintern al
is ation
Ġh om
Ġpl aced
Ġchang ing
ch ar
Ġin sect
com es
ĠP ublic
Ġbr an
se mb
Ġ201 0
Ġclass es
Ġm ale
on ic
lic k
Ġinvol ve
ĠT op
i ant
ĠS T
Ġrec y
b ra
Ġrec ently
Ġk il
Ġresult ing
am a
ĠF ind
Ġcal c
ĠPres ident
ograph ic
ĠM ath
Ġdy nam
Ġsu itable
Ġexact ly
ĠOct ober
ĠM ex
Ġvit amin
iction ary
A D
al ysis
Ġviol ence
Ġobserv ed
iet ies
t es
Ġconcern s
con t
Ġocc up
Ġst aff
Ġallow ed
ĠTod ay
Ġm ag
Ġcaus ing
Ġdig est
ang ing
Ġmil es
ab ul
Ġsitu ations
se e
Ġtra d
Ġfind ings
Ġliqu id
ef ore
ant ic
Ä ģ
Ġb one
Ġre ality
Ġe ight
Ġw rong
Ġhelp ing
Ġdi verse
het ic
Ġh uge
Ð ¾
Ġc ognitive
ĠW here
Ġread er
Ġin put
ĠS k
Ġear lier
Ġnot hing
Ġtra ck
ĠB en
D F
ĠDo es
ro ps
9 9
Ġinvest ment
er ia
ĠB r
I ON
Ġrun ning
ĠDevelop ment
Ġ >
ĠP ark
Ġtrans l
al t
Ġinterp ret
ro y
ru ary
ĠH uman
k en
Ġfore ign
Ġfig ure
Ġmanufact uring
Ġfeel ing
bo ard
ĠM et
ĠGree k
ĠB el
2 1
or ith
ag er
Ġc ities
Ġne igh
Ġhapp en
ger y
7 8
Ġmanufact ure
re et
ĠJapan ese
Ġlett ers
il ing
ten ance
Ġpe ace
ĠG reen
u ing
Ġm ut
Ġimpro ved
u ff
e ed
u x
Ġth ick
âĢĿ ,
Ġcl ick
ĠC ity
Ġcare er
Ġsepar ate
Ġadvant ages
Ġ201 1
ce l
Ġph ase
Ġcons ult
ĠE ast
ĠM ac
or ge
Ð µ
Ġst ar
R O
ĠC ong
Ġadvant age
in ter
Ġm aster
ĠCol le
Ġc and
Ġex hib
Ġexperien ced
Ġinv ent
Ġintrodu ced
Ġto ld
er als
Ġdi ed
Ġsuggest s
Ġco al
ĠDe cember
Ġa id
Ġmain ly
ĠP ower
Ð °
ĠK now
Ġheav y
Ġev ol
Ġveget ables
Ġrelig ion
Ġcitiz ens
as ion
ĠO p
ĠProf ess
Ġegg s
Ġbat tery
Ġun its
ĠP ract
ĠTw o
Ġb odies
Ġdr ive
Ġinit i
ĠV ol
en cies
ĠEng ine
Ġlead s
Ġconflic t
ĠP ost
Ġdiscuss ion
Ġp un
ĠM c
Ġread ers
g ment
ĠSt e
Ġb ud
Ġsp ring
in ated
Ġact ual
Ġst ream
Ġlearn ed
Ġre place
Ġl ung
Ġaffect s
Ġun c
ĠTechn ology
Ġbel ong
Ġbo ost
d o
Ġencoura ge
7 0
Ġd ri
r um
Ġhtt p
ĠComm on
Ġpur poses
yp es
i ology
Ġident ity
row s
Ġm ac
Ġbeaut iful
p a
ĠProg ram
Ġsc en
Ġg ets
Ġhouse hold
ward s
Ġaware ness
2 6
Ġaccur ate
Ġcar ried
Ġgood s
Ġrele ase
o ff
Ġconduct ed
ĠH ouse
ĠTh us
Ġapprox imately
Ġthough ts
ĠAd d
Ġec osystem
t ra
Ġshow ed
ĠN ovember
im al
ĠRe c
Ġthous ands
Ġf ol
Ġcol ors
Ġs ong
ĠIntern et
Ġhelp ful
Ġsee k
Ġh omes
ĠDes ign
i pe
ish ing
Ġsm art
ord er
Ġdeg rees
3 5
Ġf ine
ĠL ess
Ġcred it
ĠW ork
Ġsur vey
ou l
Ġcl os
Ġfru its
Ġr iver
Ġcomp are
i i
ĠL ife
ĠAr ch
ĠP ress
et ers
ush ing
Ġm ist
ĠN um
Ġcre ation
Ġcompon ent
ĠGen eral
Ġtre ated
Ġfind ing
Ġhim self
Ġex ternal
Ġb urn
Ġless ons
b ed
Ġexp ression
Ġm el
Ġprofession als
ĠPro ject
Ġany one
ĠU p
ĠCh apter
Ġfre edom
Ġpolic ies
Ġs em
Ġdang erous
ĠE gypt
ĠStud y
ens es
Ġwrit er
i as
Ġw at
ĠWorkshe ets
Ġra ce
Ġoper ation
Ġy ellow
Ġs av
Ġg od
Ġown ers
Ġprim arily
Ġpart ners
Ġintellig ence
Ġp le
Ġpartic les
ĠAn sw
ĠFr ance
Ġfram ew
ĠW he
Ġw rote
g l
ĠRe v
ro id
Ġconsequ ences
abul ary
Ġv es
Ġens uring
y th
re st
ke y
olog ists
Ġfrequ ency
Ġflow ers
Ġfor mer
Ġdetail ed
Ġlink ed
Ġd ental
Ġproced ure
ang es
ter ies
E L
ĠB oth
ro ph
Ġkind s
Ġoff ice
Ġass um
Ġimpact s
ĠF ig
Ġph r
ĠP lease
id a
Ġsec ure
Ġel imin
Ġrad io
Ġperform ed
' ll
c ription
t a
Ġstra ight
ĠC r
Ġindepend ent
Ġse ven
ĠL ike
Ġdep ends
" ,
ĠT reat
Ġdi am
Ġcom pl
Ġfundam ental
Ġhe ight
Ġ8 0
ĠP ub
ĠL anguage
g ra
ĠL ondon
Ġappear s
ĠB efore
Ġv ul
Ġsqu are
Ġaut hors
Ġhy per
Ġlif est
Ġform ation
ĠSec ond
Ġspec ifically
Ġmess age
d es
Ġf aster
Ġposs ess
ĠColle ge
Ġalg orith
T S
ĠS um
Ġout comes
Ġv s
Ġinst it
Ġeng lish
Ġor al
Ġex cept
Ġk ill
Ġemploy ees
Ġfail ure
Ġimmedi ately
Ġc overed
Ġperspect ive
ra el
ĠM icro
Ġdiagn osis
is is
al d
Ġb rief
Ġtreat ments
akes pe
ĠH ome
Ġlat est
Ġbott om
act ive
nd rome
Ġr ound
am ent
ĠF act
i xt
Ġcon ver
Ġamount s
Ġme at
ĠEx per
ĠGo ogle
Ġch art
Ġn urs
ĠI S
Ġsp ot
Ġfeel ings
om as
ĠA D
O S
Ġun f
Ġp u
Ġdec ades
Ġis ol
Ġpr on
ous ly
a ign
Ġd ram
P S
Ġrele ased
Ġsect or
2 8
Ġgen e
à ¥
ĠSc ient
ir us
Ġcontin uous
ĠCount y
Ġemot ions
Ġcontin ues
Ġguid elines
Ġsol ve
Ġsl ight
Ġmaintain ing
ail s
s pe
Ġatt rib
Ġmo ist
Ġsy n
Ġf r
Ġim pl
um s
ĠGra de
Ġprom pt
m en
Ġtechn ical
Ġp al
Ġdid n
Ġtr uth
ĠI d
Ġs ort
n ic
Ġphen omen
N D
Ġcirc um
us ive
r ations
ĠS er
Ġro ll
ĠUnder standing
Ġun ivers
ashing ton
ren cy
Ġbre ast
Ġw alk
Ġsum mary
ent h
Ġoper ating
Ġcoun ter
Ġbeg ins
Ġthe rm
ĠEn ergy
Ġinterest ed
om ic
Ġchar ge
ĠA ir
ĠS ign
Ġp ick
ĠY ear
Ġb ank
ĠM ary
ĠFeb ruary
Ġl ib
t ion
ĠUn ion
r ich
Ġrad iation
akespe are
Ġu pper
Ġwork ed
ĠM ult
Ġsam ples
Ġmost ly
3 3
Ġt rou
ĠM or
Ġ2 9
Ġcour ses
Ġc ert
Ġb ird
ĠE v
Ġpart y
Ġdef ic
4 5
re p
Ġs ess
ac ing
2 7
Ġsur pr
Ġsat is
Ġadv ice
p oint
olog ist
Ġmob ile
Ġsh ared
Ġv ill
ĠF ore
ĠW estern
ĠS un
ĠPh il
ĠS an
Ġpar am
ĠW ind
Ġfocus ed
Ġharm ful
) ;
em y
ĠHel p
Ġaud ience
Ġmet ab
Ġphys ic
Ġsubject s
Ġrecord s
ĠG r
Ġsh ar
Ġappro aches
Ġworld wide
in n
ĠC hem
Ġfil es
Ġmention ed
Ġdivid ed
Ġcur riculum
Ġo cean
ĠD et
Ġext ensive
Ġch urch
ĠO ld
Ġchalleng ing
Ġdou ble
Ġmot ion
Ġadd ing
Ġw ire
Ġwe ar
ĠA tt
Ġcour t
Ġsp orts
Ġdeterm ined
Ġmin or
Ġgener ate
Ġre new
Ġman ner
cl ing
Ġpro s
Ġpric es
Ġt rib
âĢ ¢
Ġm it
Ġbuild ings
ĠE conom
Ġmain tenance
it ative
ot ic
ĠO ff
Ġl ov
Ġflu id
o ch
Ġmonit oring
Ġse ed
Ġdivers ity
al le
ĠF re
ĠAn y
Ġsc he
ĠSt art
Ġcertain ly
Ġh it
Ġst one
Ġnucle ar
ab ric
ĠV iew
Ġpass ed
Ġgr ass
Ġm ission
ĠG ood
Ġinc l
ind er
ĠR et
Ġimpro ving
Ġliter ary
ĠF ound
Ġvacc ine
Ġprep ared
Ġcomp osition
Ġwe alth
os ite
ĠRe view
Ġ ign
rou p
at ically
ĠC oun
IN G
e k
ĠStud ies
c ript
Ġprogram ming
ĠMan agement
ĠW ashington
Ġsk ill
Ġpie ces
Ġd ie
Ġbl og
el ine
Ġg ram
ul in
Ġchemical s
ol ars
Ġparticip ants
Ġdest roy
m ark
Ġn it
Ġinj ury
n s
Ġmed ium
ĠC le
ĠMed ic
Ġc ook
Ġves sel
ĠSoc iety
Ġha z
Ġj u
Ġtyp ical
c ol
Ġnot ice
ox ide
Ġevent ually
I I
Ġindic ate
Ġs ac
ĠC re
2 9
Ġplay ing
Ġro ots
Ġpsych ological
Ġatmosp here
ĠB et
Ġpo em
ĠKe y
pp ed
Ġcirc uit
Ġregular ly
res ents
ere nt
ĠAs ia
Ġplay ed
Ġclear ly
Ġ9 0
Ġnav ig
Ġb an
ren ce
Ġpa ir
is her
Ġes c
Ġthem e
Ġkeep ing
e v
Ġredu ction
ib ilities
Ġco ord
st ract
Ġsal t
ĠAssoci ation
Ġint ended
Ġ200 9
i j
p at
ĠS ol
Ġl ooks
ĠB us
ĠQuest ions
y a
ĠIn formation
Ġk n
Ġbenef icial
Ġg ave
Ġs ounds
Ġestim ated
m et
Ġun iversity
erv ed
ĠKe ep
ĠM ain
Ġatt acks
ol ute
Ġfl ood
Ġhelp ed
a ult
Ġr ub
ĠH ave
Ġvul ner
Ġ19 5
Ġex change
ri age
Ġp and
Ġmus cles
Ġelect ronic
A P
Ġdescrib es
Ġh our
Ġ <
ĠTH E
m as
cul es
Ġper haps
oy al
Ġann ual
Ġjob s
ĠIs rael
Ġdr inking
ĠCh urch
ĠV is
Ġc ast
viron ments
Ġtrans ition
Ġing red
Ġter rit
Ġal t
Ġn erv
Ġveh icle
ĠD em
Ġmaxim um
Ġinst ruction
Ġpain t
ĠF am
ĠE ffect
Ġstudy ing
Ġcor resp
ĠD ig
Ġjust ice
rast ructure
z y
Ġappear ance
z a
Ġd ating
Ġwant ed
Ġprep are
Ġrep resents
Ġcontin ued
Ġext ract
Ġexpl ains
Ġag es
Ġdep th
Ġview s
ĠC ult
t hen
ce ler
Ġexpl an
Ġv oice
Ġlifest yle
ain t
av a
Ġl ic
ĠC y
om ach
Ġyou th
r ating
d own
Ġval id
Ġab use
Ġcol umn
Ġsignific ance
ro ad
Ġcho ices
ĠW ord
Ġconcent ration
Ġcustom ers
ĠU N
Ġcent uries
iver se
un t
ath y
3 6
Ġhe aring
' ve
Ġameric an
ĠS ym
Ġprote ins
ag o
Ġbat tle
Ġo d
ĠSt and
le ments
ĠP ort
Ġch ain
Ġnutrit ion
Ġl ose
Ġdecre ase
Ġemer gency
ĠPro v
Ġfac ilit
Ġdr ink
atur ally
ĠLat in
Ġd ream
ĠT ime
ul s
Ġbi ological
Ġpop ulations
ĠM ich
Ġleg is
it age
Ġinstit utions
O T
ĠT ake
Ġexp osed
Ġbr ight
s u
Ġfa ith
Ġlead er
y les
go ing
Ġne ut
g al
ut ing
Ġf oss
Ġproced ures
Ġinflamm ation
3 9
Ġpregn ancy
Ġw et
Ġrecogn ize
Ġst ages
Ġsubst ance
Ġd ial
ĠChe ck
ro g
ash ion
ĠWh ite
Ġer a
ĠT em
U S
ĠM al
Ġ7 0
Ġart ificial
os en
Ġselect ed
Ġfollow s
ar ant
Ġperiod s
orm al
Ġt um
Ġsur gery
Ġrespons ibility
Ġt ail
ff ee
l ig
Ġpotential ly
Ġfert il
Ġcons ervation
Ġdel iver
Ġp ig
ĠDes pite
in f
ĠD ist
Ġs ets
Ġdatab ase
t age
is hes
ĠRep ublic
Ġsp end
ro c
Ġmedic ations
Ġl ibrary
Ġl iver
in ate
Ġdis p
ĠC are
Ġprec ise
Ġcard i
ob e
in ating
w ord
Ġt aught
Ġresp ir
Ġne uro
in ent
air s
os a
ĠP al
am s
Ġsurround ing
ĠL a
f aces
Ġout line
Ġfound ation
Ġmy th
ĠP sych
ant ed
ĠCon f
Ġen vironments
w ood
ĠAd v
ĠDis c
w ell
Ġdoc uments
m p
Ġus age
Ġcomple ted
Ġeng age
Ġnet works
ĠInt roduction
Ġsign al
augh ter
ĠW omen
in ations
Ġveh icles
art en
Ġ200 8
ĠI N
ific ations
ĠDown load
Ġconf irm
Ġph one
C O
Ġse lection
ĠC reat
Ġwrit ers
Ġfamil iar
Ġmagn etic
Ġs pl
ĠO F
hip s
Ġ Î
ic ated
Ġprevious ly
asc ular
Ġt ut
ĠW ell
Ġres ist
ĠS af
Ġind ex
Ġth in
ist an
c ers
Ġindust ries
ing er
ĠJ ames
Ġphilos ophy
Ġv ent
7 5
ĠDav id
Ġfib er
Ġ )
Ġhe ar
Ġcr isis
ĠS l
Ġmin erals
Ġwond er
Ġframew ork
r ors
Ġl ived
ac he
ĠL oc
oth ing
ĠFurther more
in ant
Ġleaders hip
Ġhosp ital
ĠE qu
ĠGovern ment
Ġcult ures
Ġr ul
f ree
Ġbar ri
Ġoff ered
Ġc m
Ġtrans act
Ġc ere
Ġd oll
3 8
Ġrout ine
Ġrecord ed
Ġincreasing ly
ro ke
Ġtou ch
Ġtra ffic
Ġcamp aign
Ġlandsc ape
id ents
Ġ200 0
ĠB ible
p ass
Ġv ast
Ġexerc ises
Ġvict im
as er
Ġmeas ured
Ġcomb ined
Ġcompar ison
n et
d ed
Ġall erg
Ġsecond ary
ag ers
if ies
ĠF ollow
Ġk m
c hers
Ġb ow
Ġl inks
h i
ĠB C
Ġshow ing
Ġcont em
ĠT ur
Ġhand le
Ġdraw ing
Ġhe ro
as ure
ĠD el
Ġrec overy
Ġdom estic
ial ly
Ġtox ic
ĠN AS
Ġre in
and er
ĠRe f
ĠM iddle
Ġapp rec
Ġmeet ing
ĠPr int
Ġcl im
Ġshe et
Ġme ant
ĠK ore
ĠAc ad
Ġsec ret
Ġsens itive
L A
Ġpict ures
Ġsim pl
H ow
ĠD ise
Ġm er
Ġdou b
Ġf abric
Ġaccom pl
Ġvirt ual
Ġgen es
Ġhome work
Ġvoc abulary
Ġdisc ipl
ĠMed ical
r d
ĠWhe ther
Ġobtain ed
Ġmed ication
Ġ202 2
Ġhab its
is k
os ph
1 00
ĠL ord
i ated
ĠL ist
ĠE as
ĠC ivil
un k
ĠS et
erg arten
Ġcon vent
Ġcomput ers
ipp ed
Ġevery day
Ġcontain ing
Ġcustom er
Ġinstruct ions
Ġa x
Ġf asc
ĠWrit e
Ġprinc iple
ĠD irect
Ġrat io
f low
Ġmole cules
Ġrel iable
Ġch ann
Ġmor al
f all
Ġele v
ortun ately
iz er
Ġhyp ot
ĠE xt
Ã ¡
Ġra w
Ġremov ed
ĠCont rol
Ġmor ning
t r
Ġd ro
ĠCong ress
Ġexam ine
ĠPh ot
Ġk it
Ġdr iving
ĠH ol
ĠInst ead
oun ced
Ġst ock
Ġcontroll ed
Ġm ort
Ġre b
Ġis land
Ġs outhern
ĠSp ace
ak er
ĠAn g
Ġ200 7
ĠAn alysis
es ity
Ġtra in
Ġelect ron
Ġ3 5
Ġar m
re ct
i very
Ġprop osed
Ġint ake
Ġsent ences
Ġimm un
Ġins ights
Ġcollect ed
Ġst omach
ĠCom put
Ġdiscuss ed
ut ive
Ġsw itch
D A
p ed
Ġcom ment
Ġprevent ion
Ġen able
Ġcreat es
Ġth or
ĠA rab
n y
Ġfl at
Ġsy ndrome
e per
ress ed
yth on
Ġinf rastructure
Ġd ensity
ura cy
Ġcommunic ate
ĠRead ing
op es
ad o
Ġchild hood
Ġdesc ription
Ġn ations
Ġins urance
Ġopin ion
Ġcult iv
Ġconc rete
ĠCent ral
Ġinteract ion
ĠM em
ild ing
Ġrecogn ized
Ġanaly ze
igen ous
ak ers
Ġform ula
ĠMore over
] .
Ġmove ments
ĠH en
Ġro les
Ġf irm
Ġcon v
Ġext ent
Ġare n
Ġpsych ology
Ġk illed
Ġbelief s
R I
ri end
Ġinstru ment
Ġb le
20 17
ĠGu ide
Ġassign ment
r ons
Ġh am
ĠP C
Ġmach ines
Ġb rown
Ġturn ed
Ġgl uc
Ġpres ident
âĢ ľ
Ġcl oud
Ġform al
Ġn an
Ġsu fficient
ĠY es
ĠA C
Ġd u
Ġw ave
Ġb ond
Ġed ition
b ing
le g
ĠBrit ain
Ġf ill
Ġfarm ers
Ġcar b
Ġf ract
ĠM iss
ost er
Ġsay ing
ĠServ ice
Ġst em
Ġnarr ative
Ġw it
Ġn orthern
d en
ĠPl ant
Ġcut ting
Ġs ed
Ġcol oring
Ġs ell
Ġdisc rim
Ġstud ied
M S
Ġpl ate
Ġg ar
9 5
it ors
Ġagricult ure
ĠM ount
at ric
ver ty
ĠL iter
ĠOn line
it z
Ġpo verty
Ġcry pt
Ġpand emic
3 7
e al
ct or
Ġprot ected
Ġarchitect ure
Ġspirit ual
ĠFin ally
Ġo re
ul ating
ag ue
Ġrel ax
Ġl ots
Ġsupport ed
Ġl ik
Ġgreat est
ĠL ab
Ġcor por
Ġregul ations
ĠW ik
ĠS al
ĠPro cess
Ð ¸
Ġpurch ase
am ins
ough ly
ĠGe orge
Ġhe ard
Ġdi agram
ĠTe ac
Ġout l
oles ter
ic on
y n
ĠT er
Ġgrow n
ĠT ex
B C
ol f
Ġplay ers
Ġunder lying
Ġagricult ural
ĠN on
Ġke pt
Ġgir ls
u ps
ar i
ĠGl obal
Ġstart s
0 1
Ġpre t
ot he
nd om
Ġw est
Ġn aturally
ĠBus iness
Ġp ump
Ġreact ions
ĠEm p
Ġclose ly
ĠEar ly
ĠR ober
ipp ing
ĠM il
n ame
Ġsett ings
Ġexist ence
Ġconc lud
Ġw aves
ic ed
ĠC lick
Ġpur s
3 4
6 5
Ġs end
Ġdes pite
Ġsmo king
Ġpro port
Ġal ign
Ġabs olute
Ġsch olars
Ġsh ip
Ġst ation
Ġst orm
Ġsubst ant
m ic
Ġa er
Ġmov ed
ĠMex ico
v ity
Ġc ash
Ġbehavi ors
Ġcy ber
plic ated
ak s
ĠT ype
ĠB re
Ġprodu cing
ad vant
Ġspe aking
ĠNAS A
ber g
Ġac celer
Ġpers u
Ġguid ance
ĠP DF
Ġpre m
Ġbehavi our
olester ol
o ke
Ġcircum st
Ñ Ĥ
p es
an es
Ġshe l
ac ific
ĠM use
co ver
Ġcomp ounds
Ġmon itor
Ġon to
Ġprint able
Ġw estern
Ġinterest s
Ġvari able
ĠE th
Ġeval uation
Ġt al
ri a
ĠL eg
Ġlearn ers
Ġcr ime
ĠB at
Ġact s
el es
Ġhyd rogen
Ġs ides
Ġfeed back
Ġminim um
Ġco vers
L E
Ġst ored
Ġac ids
Ġco ffee
ĠQ ue
ĠA P
Ġoff ering
Ġcop per
Ġunder st
rodu ct
Ġper man
Ġcorresp ond
il ed
Ġn ar
Ġg ather
ĠPa ul
Ġdist ingu
Ġeth ical
m aking
Ġim per
or gan
Ġserv ed
S A
ĠM ass
ĠJ e
Ġnorm ally
ĠMe an
ra ction
Ġbra nd
ter ing
Ġfor t
Ġsuff ering
Ġs od
Ġ4 5
ĠH am
Ġcar s
rop ical
0 5
Ġas semb
Ġconsist ent
ĠC am
Ġcap able
Ġfocus es
op er
Ġtrans mission
y ing
ĠI r
Ġhapp y
ĠSe a
Ġrapid ly
Ġthe ories
Ġob vious
Ġsmo oth
Ġs en
ĠM r
Ġab ilities
ĠL ast
ĠM ill
Ġra ise
Ġfac ilities
Ġrequ est
Ġshap es
omet imes
Ġinc hes
Ġd ent
Ġsubst ances
Ġd rop
Ġsupport ing
Ġaccount s
ĠEnvironment al
Ġle af
Ġinter view
l ers
Ġw ants
Ġgener ated
Ġgra nd
al ian
Ġauthor ity
as p
ĠG old
Ġprofess or
oss ible
rol og
udd en
all ed
Ġcomp r
ĠAut hor
Ġap art
Ġslight ly
co in
is p
Ġre ven
ĠJew ish
Ġst ated
Ġexp ensive
Ġoff ic
ĠM art
k a
Ġwall s
Ġra ndom
ĠId ent
Ġa qu
Ġun ited
idd en
Ġass istance
Ġaff ord
Ġd ut
ĠR ich
Ġcalc ium
3 2
Ġhar vest
n el
Ġacc uracy
l ong
ĠOp en
g ets
Ġconf idence
ĠExam ples
Ġinteract ions
Ġapp oint
Ġobject ive
Ġdef ine
Ġp up
Ġachie ved
ĠRuss ia
Ġdec ided
o om
ĠL ong
ra cy
Ġad equ
ĠIs lam
Ġpresent ation
Ġre ached
az ing
Ġtest ed
at o
Ġmeasure ment
ĠTex as
Ġaim s
Ġa w
ĠL ou
ĠT able
Ġmin eral
Ġevalu ate
ĠP ers
Ġinform ed
Ġvis ible
oc king
Ġast ron
Ġcou ple
4 8
Ġra ised
od ing
Ġdec ide
Ġport ion
Ġinnov ation
I G
Ġsp ent
ĠC ath
ĠS uch
Ġprev al
Ġins ulin
Ġbeaut y
Ġtra um
Ġdesc ript
pp ing
el lect
Ġnot ed
Ġr ural
ĠC ap
ĠSt r
ĠAt l
Ġc a
Ġbud get
Ġconsum ers
ĠHist or
ic ious
ĠI P
Ġhapp ened
Ġcare fully
Ġf ashion
Ġm oon
Ġcons cious
l ar
ĠR ad
Ġexperim ents
Ġp df
Ġsupp lement
Ġaccess ible
Ġer ror
Ġg al
Ġbro ther
Ġfig ures
Ġst ars
Ġrem ote
Ġvari ables
Ġad vert
b i
Ġbreat hing
Ġdisc overy
Ġfin ally
Ġsal es
ch ain
r ant
Ġeng aging
h av
ĠIn s
Ġcrit ic
Ġfix ed
Ġb ones
Ġ3 00
ans ion
Ġ3 1
Ġn or
Ġreg ist
Ã ¼
Ġconcern ed
Ġb io
row ing
Ġsub sequ
Ġhabit at
ĠCoun cil
Ġconn ections
al se
Ġfl oor
Ġt alking
Ġimm ig
Ġc ats
ĠCour t
Ġf if
ival ent
ĠAnsw er
ĠN ote
og a
Ġthem es
ic ks
Ġs now
ĠSt at
Ġlarge ly
ad ian
Ġam b
Ġinj uries
Ġmult i
Ġexplain ed
Ġle aving
Ġb and
ĠPa per
el ess
ĠRuss ian
Ġder ived
ars h
ip edia
ĠB est
Ġp ure
Ġw ish
Ġmix ed
ĠM ethod
Ã Ń
Ġsh op
ag on
Ġc rops
ar ter
Ġen ab
Ġbreat h
a el
we ight
Ġgluc ose
Ġimprove ment
Ġfunction al
Ġscen ar
P T
A s
Ġgu arant
h op
ĠN or
ĠS ing
Ġpre f
ste in
Ġcol our
Ġdel ivery
Ġvol tage
ies t
ĠJ ul
g ans
Ġdep os
Ġset tle
Ġe ast
Ġloc ations
A l
Ġsequ ence
Ġab und
Ġobject ives
A n
Ġro w
Ġch ick
Ġindic ates
Ġt aste
in du
Ġres ol
Ġpres ents
ĠSc iences
Ġstrugg le
Ġmill ions
Ġprodu ces
g ent
Ġf elt
Ġgovern ments
ĠInd ust
Ġsh aring
Ġrespons es
b and
Ġvide os
Ġagree ment
Ġserv es
Ġfor ced
Ø §
Ġother wise
Ġbal anced
4 4
ĠWorkshe et
Ġcrus her
Ġch rom
Ġover view
Ġorgan isms
Ġsee king
Ġsurv ival
Ġinf ected
Ġsuccess fully
Ġstreng then
Ġla un
ĠIs land
Ġdifficult y
en a
Ġdiv ision
Ġexcess ive
ĠF lor
Ġqu iz
Ġeth nic
on a
ĠMuse um
h ma
te e
Ġex cl
ĠN atural
ra g
Ġst able
ĠE vent
Ġpart ies
Ġphys ics
t ic
H O
ĠE st
ĠL and
Ġwind ow
ĠEngine ering
Ġoccur red
os c
Ġal ph
ĠG roup
Ġm m
ot al
Ġtru ly
Ġin ner
ĠIm p
Ġt un
Ġp ounds
Ġto ler
ic king
Ġper ce
ip es
Ġcharacter ized
ĠMedic ine
ber t
Ġext ended
Ġpa id
ĠRem ember
Ġ5 00
ic an
ĠM ach
Ġorgan ized
Ġst ret
ĠL ibrary
i ability
Ġlist ed
am ing
Ġsuggest ed
Ġs an
Ġswe et
Ġ200 6
erson al
in ition
U R
Ġd ust
Ġtransport ation
Ġinfluen ced
ĠSim ilar
ĠH and
p re
Ġs ick
app ing
Ġs ections
ens us
ĠA st
ĠS en
Ġhundred s
Ġstand s
Ġ200 5
ĠN av
Ġch osen
ĠVir gin
Ġmarket ing
ult s
ĠN ature
ĠO x
Ġinsect s
Ġte en
Ġpo etry
Ġw ife
Ġconsum er
Ġthe rap
ĠLess on
Ġt ank
Ġtell s
Ġc atch
Ġshe ll
th rop
Ġman aging
op l
3 1
Ġrest rict
Ġsh ift
Ġadv oc
Ġun s
Ġimplement ation
Ġm ood
le vel
Ġrecogn ition
Ġopen ing
Ġquant um
Ġch olesterol
Ġmathemat ics
ĠProfess or
Ġg all
Ġsupport s
0 8
Ġmar riage
Ġvit amins
Ġsuff er
ĠA S
Ġz ero
Ġw id
Ġsurv ive
ro x
Ġbig gest
Ġc ards
Ġm ild
ad s
ĠR ob
k in
Ġredu ces
Ġno ise
pos al
Ġob st
if orm
ĠTh omas
Ġass ets
it us
Ġconsid ering
ĠC at
Ġdeath s
w hat
Ġjo in
Ġpolit ics
or ter
Ġdesign s
Ġst yles
Ġreve aled
Ġf illed
Ġm ur
Ġgreat ly
or ous
Ð ½
r as
Ġpol ice
et ics
v an
Ġen ables
Ġpromot ing
Ġded icated
Ġacc um
int s
Ġcal ories
Ġprepar ation
Ġlab el
Ġwat ers
Ġst ability
Ġn oun
Ġcon ven
Ġd in
Ġcircumst ances
ĠP op
ap h
Ġsc ene
Ġit em
Ġconvent ional
Ġmechan ical
Ġprot ocol
Ġt iny
oc racy
Ġdes ired
st ream
Ġposs ibly
Ġclaim s
ĠH IV
Ġwarm ing
Ġelect ro
Ġprevent ing
w in
ĠTh ose
ang ed
it ory
Ġmat ch
Ġob esity
Ġthe ore
Ġc art
Ġcand id
ual ity
Ġin ject
n ormal
Ġwe ap
Ġc ooking
ĠÂ ©
I f
Ġwhere as
hy th
Ġm ere
20 18
Ġbi ology
Ġtre nds
Ġstate ments
Ñ ģ
es ter
Ġcateg ories
Ġk g
Ġinnov ative
og ue
b ody
Ġopp osite
Ġinteract ive
Ġhor iz
Ġsat ell
ĠR ights
Ġad oles
Ġmechan isms
pect ed
y e
Ġsc ore
Ġaccount ing
Ġmechan ism
Ġfoss il
ĠB er
um es
Ġstr ing
Ġlabor atory
Ġmem br
Ġfl o
Ġclean ing
Ġmoist ure
Ġunderst ood
0 7
Ġlay ers
le ts
pos ition
w est
ĠA ccess
ĠCol or
ot ed
b ooks
Ġn erve
. |
Ġf urn
Ġin du
Ġcl osed
h ow
Ġa f
ir ation
Ġrenew able
ĠV er
h and
Ġcomp osed
Ġresid ents
I L
Ġdemonst rate
ig are
Ġadminist ration
Ġa th
ĠIm port
f riend
du le
Ġdec line
Ġcomp ound
Ġsp aces
Ġun iverse
if est
Ġpers ist
ĠPhys ical
Ġequ ation
r id
itud es
Ġcry st
Ñ Ģ
itution al
ĠA p
Ġrespir atory
ish ment
Ġcateg ory
Ġs udden
Ġwh om
Ġdi oxide
ĠOr ig
ite ly
Ġsp ort
Ġang le
ĠM aterial
Ġsu c
Ġexam ination
Ġl ies
ĠA ge
Ġhe ating
Ġr id
w ing
Ġpl ot
Ġf er
Ġdet ection
Ġful f
Ġun known
Ġm ixt
ĠC D
Ġdes ire
Ġte a
O C
ĠR ome
ĠE nd
Ġtext s
Ġpercent age
M L
Ġingred ients
st s
Ġsign als
omet ry
Ġmass ive
Ġindepend ence
Ġde eper
ĠOn ly
Ġf le
Ġquant ity
ocr atic
ĠMod ern
us ions
Ġsw im
Ġed ge
9 8
Ġwebs ites
ĠPract ice
Ġst ick
p et
Ġcall s
Ġ à¤
v is
Ġeffect iveness
Ġent ry
Ġcl ar
Ġhold s
ĠK ids
Ġb iod
Ġro cks
id ity
Ġmar ine
Ġint ellect
4 6
Ġar ts
Ġcompet ition
Ġ ?
Ġsur faces
Ġvirus es
Ġm ent
ic ate
Ġcollabor ation
ar ia
Ġun like
ĠA lex
ĠS ometimes
Ġdis advant
ĠP acific
Ġoper ate
ed y
ĠSh ort
Ġ202 3
ĠDiff erent
Ġinter vention
wor king
ere n
ĠRober t
iot ics
Ġpain ting
ĠI ll
ĠV ict
7 6
oc y
Ġar my
ut s
Ġgreen house
Ġp ark
ĠJ ud
Ġh olid
Ġb ot
oura ge
ĠN ative
I P
Ġre form
ĠU r
Ġlist en
oh yd
k es
ĠW ood
ĠT ry
ĠUS A
Ġfrequ ent
ate ver
and a
ri an
Ġpro of
Ġpers ons
ph one
Ġc rop
Ġbut ter
ĠB ack
Ġdis app
ĠResear chers
Ġperson ality
Ġy ield
h an
u gh
ĠPl ay
ĠCur rent
c est
ĠFr ank
Ġdeb ate
C C
Ġf ly
w ith
Ġmark ed
ĠWind ows
5 00
ĠL ight
ĠEx p
________ ________
Ġbro ken
Ġsus p
he nt
Ġgram mar
0 4
Ġfe ver
ĠD ictionary
Ġbl ocks
S E
ĠCon n
ĠFig ure
Ġwor s
Ġchem istry
Ġp ull
Ġser ver
ĠP ython
it a
pl ate
z ed
ym ph
alle l
ĠCont in
Ġra il
ĠRep ort
Ġult imately
ĠCom ple
H e
ĠB ooks
ĠL ow
it ivity
ĠL ake
Ġdoct ors
ĠCons ider
Ġmark ets
ear ch
Ġrep air
Ġv ibr
Ġequ ivalent
ĠComp any
Ġt ried
Ġg un
il er
Ġrem ark
Ġres il
Ġcontem porary
Ġcorrect ly
writ ing
ĠB udd
Ġcr im
O L
ĠJ o
ĠFound ation
Ġer rors
Ġch lor
ĠO cean
Ġreg ional
Ġp ool
Ġar ray
Ġexpress ed
Ġkid ney
ĠHen ry
ĠAm ong
ĠIm pro
Ġmount ain
Ġman ual
Ġs ight
0 3
Ġman aged
Ġa head
Ġris ing
Ġbr ings
Ġcon vey
Ġforest s
Ã ³
Ġfeed ing
Ġart ists
ĠRev olution
Ġens ures
ĠP an
Ġsk y
Ġadop ted
Ġcapt ure
Ġcomfort able
b urg
ĠB it
Ġwor ry
Ġor gans
ĠJ er
Ġconsum e
Ġarr ange
un te
Ġs in
Ġle ct
Ġrepe ated
ren e
Ġon going
io x
Ġstruct ural
Ġw alking
Ġproduct ivity
Ġdynam ic
e en
Ġwild life
Ġ ;
Ġbe ar
Ġinvol ving
Ġc os
Ġfund s
Ġdis rupt
Ġso le
ĠIm m
Ġaccept ed
Ġconstant ly
al a
Ġ rom
Ġrel ation
Ġplatform s
C T
Ġinc red
ĠSp ain
Ġteam s
or al
Ġp il
ĠV it
Ġm amm
Ġd aughter
ic ing
ĠTh ough
Ġtiss ues
w ords
Ġcor on
Ġthreat s
Ġhor se
b orn
ot a
ĠDig ital
Ġgener ations
ĠDise ase
ĠC a
ĠM ont
ĠH aw
Ġimp ossible
Ġimmedi ate
c raft
ĠL im
Ġown er
u ke
Ġcon vert
Ġinteg rated
ĠL ead
Ġman ip
Ġme als
g ers
so ft
Ġim plications
ĠMus lim
Ġac know
Ġover l
ct ic
Ġdep artment
w ar
Ġen ds
Ġexp ansion
Ġver b
Ġidentify ing
ad d
ĠJ ose
wh ich
Ġpl us
Ġad vent
Ġfavor ite
z il
ĠT ypes
it ting
âĢĻ .
Ġtw ice
hy d
Ġslow ly
Ġvessel s
Ġlov ed
ĠM o
h ist
un c
ĠS il
Ġwor se
Ġre ly
Ġab stract
Ġclos er
Ġfl ight
lud ing
rit is
b les
az on
ĠH y
Ġve ter
Ġtrans p
Ġassoci ation
Ġoptim al
Ġutil ized
us es
ro vers
Ġb or
Ġra cial
ĠChrist mas
Ġlook ed
Ġst roke
Ġt ro
Ġstat istics
Ġcalcul ate
8 5
Ġf u
ov ascular
Ġsol ving
Ġstim ul
ĠAustral ian
Ġm old
Ġmet als
ĠFam ily
ĠM a
Ġtherm al
ĠCar ol
Ġhe m
st one
Ġ200 3
Ġro of
Ã ¶
ic ide
ĠC rit
T here
ĠPro per
Ġprint ing
f ield
Ġre cept
ell a
ĠRes p
c ific
I s
Ġcreat ivity
ro oms
Ġdo or
Ġemb ra
ĠFlor ida
Ġfarm ing
Ġposs ibility
z es
ĠPro ble
Ġt ables
Ġ18 6
ĠAs k
Ġdeb t
ĠChar les
Ġfl ash
ĠCl imate
Ġbur ning
Ġbat teries
in et
Ġm ic
f e
irc raft
Ġg ap
ĠD ue
Ġmus e
9 6
um ps
av irus
ĠKing dom
Ġsymbol s
Ġinstru ments
Ġin hib
ĠS olar
Ġparticip ate
Ġmet ers
Ġconf ig
ast ers
Ġpan els
Ġflow er
Ġ199 0
f l
char ge
Ġp ray
ap ed
b eth
Ġt ight
Ġcomput ing
m es
Ġtrans lation
ĠRes ources
ĠLou is
ĠA ND
ĠJew s
Ġme al
Ġpublic ation
ĠCath olic
Ġsmo ke
Ġemploy ed
ĠTh ree
ĠNe xt
Ġ200 4
vent ions
Ġdiscrim ination
in ction
ĠW ild
Ġsun light
u nder
Ġfund ing
Ġorigin ally
Ġphenomen on
ist ical
Ġphot os
g s
ĠL abor
air y
Ġcont amin
Ġprof it
Ġcho osing
ĠSupp ort
g ien
ĠP o
Ã ¢
ac co
Ġpl enty
Ġb read
Ġh ur
he im
Ġr ig
Ġmetab ol
Ġin equ
Ġhous es
ar n
Ġun able
ĠCol l
ad y
Ġmar ks
Ġto w
Ġor ient
Ġremain ed
Ġcrim inal
C D
id ential
Ġlight s
Ġtrad itions
p read
ĠFr anc
Ġdist rict
igh ter
0 2
Ġleg s
Ġneigh b
Ġre tain
Ġprinc ip
Ġat oms
ĠIt aly
Ġcrit eria
Ġappe ared
in ity
ut rit
er ning
ĠS pecial
com m
Ġrepresent ed
Ġb anks
Ġ3 2
ĠB ig
ĠD iv
Ġsustain ability
b u
ĠB ay
ĠExam ple
he alth
Ġcom plications
Ġcom plicated
y roid
Ġemploy ment
ĠG ard
Ġcirc le
ĠS ever
ic ians
Ġexpl oration
Ġsum mar
ĠF ace
EN T
Ġentire ly
W h
qu ality
Ġres olution
Ġsupp lies
ploy ment
Ġfram e
Ġmole cular
r ants
Ġshar p
se y
Ġperman ent
Ġpo ison
ĠBen ef
ap or
f ts
Ġapp arent
g u
ĠP ur
ĠO per
Ġtechn ological
Ġlim its
Ġcap abilities
v ille
ĠTreat ment
Ġm aps
ĠConst itution
Ġt all
Ġvulner able
Ġmod e
Ġout come
Ġpret ty
Ġz one
Ġsl a
ĠLe vel
Ġf av
or ph
Ġf ro
Ġtre nd
i ological
Ġtra ined
Ġb ib
lev ision
Ġir rit
ĠCl in
pa per
er ior
Ġde aling
Ġwit ness
on ym
Ġintrodu ce
Ġexpl oring
ĠV ar
Ġpr ison
iox id
c her
on ia
ĠY et
Ġexperien cing
Ġf old
ides pread
s he
Ġsee ing
ĠAss ess
Ġar ms
Ġyoung er
Ġr u
Ġres erv
Ġfor get
or a
Ġrepresent ation
Ġcl ot
ĠAv oid
in i
d oor
it an
ak istan
Ġc up
c ar
Ġbr idge
ĠEmp ire
ĠM ag
Ġprovid er
ĠAn n
Ġsla very
ĠH all
Ġfil ter
ĠB ur
ĠF ederal
ast s
Ġaffect ing
Ġin hab
c hen
5 5
ĠComm ission
Ġsold iers
Ã ¤
Ġvol can
Ġph osph
a ud
ell ed
ov iet
k i
Ġdiet ary
Ġmeasure ments
Ġdec ade
Ġrecommend ations
Ġmult ipl
Ġinf ect
h t
ent ed
E x
Ġch ief
Ġpres crib
ang le
rie ved
Ġliter acy
ĠB ased
z en
Ġf ats
ĠC ell
Ġsc ript
Ġb oy
ĠIt alian
U T
m m
ir t
Ġmit ig
ĠN ations
Ġam azing
Ġtur ning
em ia
Ġexpert ise
% .
H D
Ġex ists
Ġremain ing
Ġep id
Ġpan el
8 8
Ġan cest
Ġatt end
Ġsp ending
ĠAr my
ag ues
Ġalgorith ms
ĠYou ng
os ion
Ġacc ident
imens ional
ear s
Ġlight ing
Ġpart ner
te xt
Ġsp ok
ĠB ro
Ġdec or
Ġph arm
Ġreview s
ĠN ever
Ġnerv ous
C l
ĠIn vest
Ġexplan ation
ot ton
Ġnit rogen
ĠGen er
Ġmixt ure
Ġint ense
ĠU l
Ġun us
Ġadequ ate
Ġ id
Ġfac ing
o ir
ĠWith out
ĠPr inc
Ġobs erve
Ġcom ments
Ġte le
Ġaud io
? âĢĿ
Ġra c
Ġnar row
ĠSc ot
á ¹
it ter
ĠVirgin ia
0 6
Ġg erm
R ead
ĠP ot
Ġadd iction
Ġt ube
ĠDef inition
Ġconc erning
Ġv ac
Ġmathemat ical
Ġd ys
oc ur
Ġj aw
Ġvar ieties
Ġadminist r
Ġexpl o
ast y
Ġfew er
Ġhorm one
9 7
hold ers
Ġmiss ing
ĠTe xt
ĠO pt
here d
ĠSe lect
Ġ3 6
ĠD id
ge bra
Ġgr inding
I R
Ġr ing
ĠSu per
friend ly
f ish
Ġcam era
it ure
ful ness
Ġdemonst rated
ĠB ab
Ġatt ached
Ġh us
ĠL ook
Ġconsider ation
Ġj ump
Ġob lig
Ġline ar
% )
Ġwill ing
Y ou
ro at
Ġf alse
B T
I M
P h
ry pt
ir ds
Ġrespect ively
Ġphot o
st ate
Ġw idespread
ĠE r
ĠPhys ics
ĠSec urity
Ġne ck
Ġn ine
Ġwar ning
Ġstrong er
st on
Ġhous ing
Ġrel ief
Ġc av
Ġra b
oun ter
Ġs izes
ne e
here nt
D P
ol a
Ġparam eters
Ġr an
Ġauthor ities
out s
force ment
Ġent ertain
Ġrepl aced
ĠCol umb
Ġreg ulation
Ġdam aged
Ġdistrib uted
8 6
A meric
Ġr ice
ograph ical
Ġturn s
ĠL ar
ear ing
Ġknow ing
Ġgradu ally
Ġsche dule
Ġun less
Ġher itage
Ġpregn ant
ĠS oviet
ĠBra zil
h us
ĠCommun ity
4 7
Ġnutri ent
Ġcl othing
Ġfac ed
Ġgain ed
Ġt ub
ĠPar is
e ffect
Ġrecy cling
ut ch
ĠApp lic
ra ys
A B
est one
ĠA M
ĠG al
Ġdist ur
Ġlist ening
i ary
Ġtrial s
Ġplan e
Ġbab ies
ĠWik ipedia
sc ale
a it
Ġb rows
ree k
Ġf est
lish ing
Ġe ld
ord ers
Ġdel ay
ĠNum ber
Ġthan ks
Ġa ward
Ġpres chool
Ġcur rency
Ġs ke
ĠF our
Ġprov en
Ġ7 5
Ġdifficult ies
Ġexc iting
ĠSaf ety
Ġt one
ĠM ot
Ġcont rovers
Ġpar allel
Ġmeas uring
E P
Ġver tical
Ġm and
ra pe
ĠS outhern
Ġpow der
Ġco verage
Ġdirect or
ĠInc re
Ġdang er
pr int
Ġinterpret ation
Ġofficial s
Ġp y
Ġre ward
se ll
Ġfound ed
ĠSm ith
ĠServ ices
ĠVict or
omet ric
Ġpro ve
c ons
Ġsp in
Ġcent ers
Ġdom ain
Ġdiagn osed
Ġpow ers
Ġout bre
Ġour selves
ĠN orthern
Ġp p
ĠB ank
com ing
ig ue
Ġst rict
Ġbut ton
Ġcontrol s
lies t
Ġtra its
pl ing
ĠBo ard
ĠC irc
Ġtra ct
et her
Ġb order
ĠCh ange
Ġupd ated
Ġp ed
ĠC ost
Ġsupp lements
Ġd ates
Ġsh if
Ġover come
Ġneigh bor
l iam
it ual
Ġhe aling
Ġcommit ted
Ġintellect ual
Ġphr ase
Ġa ircraft
Ġstand ing
Ġp ush
Ġart ist
n o
Ġexpect ations
ĠCan adian
il ation
ĠOff ice
ic ago
Ġinstall ed
Ġput ting
Ġw ww
Ġpar as
Ġper ception
ĠAg ricult
Ġfat ty
Ġsatis f
Ġs hed
Ġpos itions
ĠM ad
Ġsh ut
u a
Ġocc asion
on tal
ĠAd minist
Ġcool ing
Ġopen ed
N C
Ġh ole
ot ing
ins on
ĠScient ists
Ġcarb ohyd
r is
Ġ200 1
Ġmus ical
ĠM en
Ġwork place
ĠW ords
Ġconvers ation
ĠCre ate
Ġfasc inating
Ġfun g
Ġplay er
m l
ĠI T
Ġn ose
it als
us ing
oc c
re land
ĠD an
ĠMark et
Ġaut hent
Ġins ight
Ġint est
Ġt on
Ġpe ak
Ġfunction ing
Ġgir l
ĠSh ould
o ids
Ġinteg ration
Ð¾ Ð
Ġb ath
ĠP eter
Ġarg uments
Ġvill age
ĠC opy
ĠUn like
ĠCan cer
Ġcor n
Ġefficient ly
ĠSever al
es ides
Ġshe ets
Ġins ert
ad ing
Ġdec ay
ĠH aving
ĠM ars
Ġobserv ations
ĠMod el
ĠL it
Ġprovid ers
Ġexperim ental
Ġd uration
t op
th ritis
ion e
N S
ĠTh anks
iot ic
Ġfocus ing
Ġfour th
Ġmess ages
ĠAs ian
ĠComput er
ĠT O
l o
ap es
0 9
Ġd rain
Ġmov ie
ĠArt icle
Ġag encies
Ġresult ed
ĠP M
Ġremov al
Ġspect rum
Ġdiam eter
Ġtreat ing
ĠSystem s
Ġhard ware
ut her
ĠM er
Ġdepend ent
Ġbound aries
Ġunc ertain
ĠOb ject
Ġflex ible
Ġce ment
Ġbran ches
et ary
Ġg ut
am ple
Ġdeterm ining
ym es
4 9
ab eth
Ġparticip ation
Ġcomb at
Ġtur b
ĠQuest ion
Ġsuc ceed
liam ent
Ġre ct
Ġnurs ing
ĠT imes
Ġdigest ive
og s
ĠI reland
agn etic
Ġavail ability
A r
ĠS at
Ġnecess arily
imens ions
ol ving
Ġst reet
ĠT V
e enth
Ġspecial ized
Ġterrit ory
ĠT re
Ġphot ograph
Ġcardi ovascular
Ġ200 2
Ġmicro b
Ġfem ales
ĠTe aching
Ġcl ient
Ġprom inent
Ġreal ize
Ġrun s
Ġwa it
Ġlaun ched
Ġcommit ment
Ġste am
Ġsens ors
Ġgra des
az ine
Ġcare ful
Ġprint ed
ĠReg ular
Ġknow s
Ġbran ch
ĠImp act
ï ¼
ĠDe v
edi atric
s m
ir ty
7 7
g ments
ort ion
Ġcover ing
b ur
Ġanal ys
Ġest imate
Ġsecond s
Ġac ute
Ġequ ality
l ist
Ġprocess ed
Ġarch ae
en ess
ĠM oon
cy cl
gien e
Ġsur ve
Ġclass ical
U n
ic y
Ġch ances
Ġk new
Ġant ioxid
Ġcl ients
Ġag ency
ult y
ov en
Ġast hma
Ġfight ing
Ġt ons
ast ing
Ġvari ations
ĠN ame
Ġthous and
pt om
Ġre ject
Ġin n
Ġag ents
ĠE c
Ġo v
Ġl aser
the less
Ġlog ic
m ia
Ġelimin ate
Ġg one
Ġold est
Ġath let
Ġdra wn
Ġm ales
Ġst rain
Ġsm ell
Ġeas tern
l ines
ib er
ĠBe ing
Ġ vel
Ġcompet itive
um ber
Ġkind ergarten
Ġcra ft
Ġregard less
ie val
ĠB al
Ġtri p
ogen ic
Ġcon j
ĠM ah
Ġmov es
s uch
Ġt ropical
Ġf o
Ġvol unte
Â ·
Ġsc ar
d r
ĠE U
Ġeduc ators
Ġend ed
Ġinteg r
Ġevol ved
ĠK ind
ou nce
Ġrece iving
Ġdefin itely
b ox
Ġas king
ĠFranc is
8 9
ĠPro duct
ĠII I
m ers
Ġb low
he ast
Ġweak ness
Ġfl our
Ġgr id
ĠO h
ĠP arent
Ġe ase
Ġmar ried
ĠBe hav
ĠPr im
Ġimplement ed
Ġdem ands
Ġsub s
l ied
aus es
eles c
Ġbe ings
ĠHe art
Ġst ake
Ġreturn ed
Ġminim ize
Ġutil ize
Ġrob ot
Ġinter ventions
Ġserv ing
Ġpay ment
O M
Ġtut orial
du ction
Ġnear by
pro f
Ġdecre ased
ĠL ED
Ġlat ter
Ġdefin itions
Ġbig ger
Ġany where
ĠI de
ĠAn cient
Ġhaz ard
! !
ĠP akistan
ri x
k et
Ġconst it
Ġsess ion
Ġab normal
Ġident ification
Ġinv ention
Ġm g
iss ance
Ġclass ified
ĠSc ott
Ġbacter ial
Ġfin ished
B N
Ġdef ect
Ġhand ling
Ġunder t
Ġautom atically
Ġref erences
ĠAm azon
ha ust
Ġint ensity
Ġbo ys
ĠStr ateg
Ġemot ion
Ġlung s
Ġmat ters
ĠR oyal
Ġad verse
ĠMed ia
Ġflex ibility
ĠF und
are n
Ġsens or
Ġb onds
Ġplant ing
Ġpass ion
et te
Ġprotect ing
Ġinvestig ation
Ġclass ic
Ġpass age
ĠS ource
ĠP age
ĠR om
Ġte levision
iz abeth
he a
ĠF ire
rep rene
Ġhold ing
ĠMus ic
Ġs ale
Ġconvers ion
Ġd ance
Ġdis pl
ĠC P
Ġrec over
Ġdoub t
eg a
Ġn ob
Ġover w
u its
ĠMich ael
Ġg ases
Ġorig ins
âĢĻ ,
Ġtrou ble
iv ities
ĠJose ph
al ities
at ial
ĠCh oose
ĠBit coin
pl ant
e conom
Ġfall s
ĠF low
Ġpu zz
op eration
Ġreve al
Ġr hyth
Ġr ivers
Ġindic ated
ĠSm all
ĠU t
Ġ6 5
Ġche st
ĠBl ood
Ġgra ins
Ġfriend ly
Ġh idden
ĠH yd
Ġcontain ed
Ġm ir
Ġ15 0
ĠUn f
ive red
rape ut
Ġinter face
el i
Ġ ille
Ġmin ute
Ġabs ence
Ġâ Ĩ
Ġm eth
Ġ ion
ant a
Ġtransact ions
Ġp it
Ġl ymph
ĠS ustain
ĠS elf
Ġvisit ors
Ġbl ind
Ġman ifest
Ġapp lying
Ġtraum a
Ġsh akespeare
Ġengine ers
' m
ru ption
Ġnutrit ional
B S
Ġc ub
Ġc igare
her ic
ide o
Ġal ter
og ram
Ġpersu asive
Ġperspect ives
ain ed
ĠS und
ĠP ages
t les
Ġh oles
c a
Ġelect rons
ĠB ill
Ġdef ense
Ġtrig ger
Ġox id
rou s
Ġ198 0
ĠF ull
Ġinst ant
ic it
ĠS earch
Ġfit ness
Ġpopular ity
Ġeng aged
h ar
Ġ19 60
Ġadoles c
utrit ion
Ġemphas is
Ġaim ed
ĠNet work
Ġsubstant ial
ĠD oc
ost ic
at ile
ĠSw ed
Ġbehavior al
og rap
Ġcontain er
8 7
ab il
Ġch am
Ġfin ance
Ġg ast
Ġev il
. âĢĻ
Ġd im
ir ms
ĠE p
Ġ197 0
Ġconstruct ed
Ġecosystem s
Ġh op
ĠT or
Ġh ol
W hen
ĠC H
Ġbi om
Ġto b
Ġm ice
Ġl es
ĠP olic
ĠOrgan ization
Ġgl obe
Ġstrateg ic
ĠEss ays
Ġlimit ations
Ġout er
Ġann ounced
I A
ĠBu ilding
Ġcent re
Ġprotect ive
Ġaddress ing
Ġdiff er
ĠP et
br idge
Ġqual ities
Ġdra g
Ġwh atever
ĠBenef its
Ġprof ound
Ġinflu ences
Ġfail ed
Ġo m
Ġf ell
ĠD ou
Ġto t
Ġp H
Ġm es
Ġrep ut
Ġkil omet
Ġgal ax
b a
qu ir
Ġcalcul ated
Ġsubsequ ent
ill a
ĠV e
Ġinvestig ate
ĠMicro soft
on n
Ġdefic iency
ĠMart in
Ġun w
Ġgre w
M P
Ġpol ar
Ġunivers al
Ġdo se
ast ics
ĠAr ts
4 2
ru it
ĠN az
Ġexam ined
ĠN ov
Ġappro ved
Ġpriv acy
op ic
ass ium
Ġeng agement
ĠV iet
Ġscreen ing
ĠC C
Ġus ual
c alled
Ġd ictionary
Ġinitial ly
ign ment
omm od
Ġhon or
em a
Ġn est
Ġassign ed
on al
Ġtheore tical
ĠC amp
ĠNe ed
ĠC ross
Ġsc an
Ġearth qu
Ġdem ocracy
Ġcolon ial
Ġun com
Ġbiod iversity
6 6
Ġgrow s
ĠSh akespeare
ĠA R
Ġblock chain
Ġlegis lation
C om
er ies
un ning
Ġreven ue
Ġiss ued
cl ass
o ys
Ġfl ag
Ġent hus
Ġs ulf
Ġadd s
Ġmar g
Ġeth ics
ad der
Ġcreat ures
ĠL og
Ġproport ion
Ġland s
Ġbuy ing
Ġsh ot
Ġsoc ieties
Ġcorrespond ing
ĠUn it
hem ical
ĠDisc uss
ĠEas tern
C E
Ġne ur
ors es
op les
Ġam pl
Ġc row
Ġfem in
ĠPol it
ert ation
Ġdef e
Ġin her
ĠD ate
erv ing
ne ys
Ġsil ver
ĠSym ptoms
ult ane
te en
Ġobserv ation
Ġtob acco
ĠL in
Ġ9 78
Ġdel ivered
Ġrout e
ĠRe cent
Ġcarry ing
Ġad m
ak ed
Ġform ing
Ġmembr ane
Ġint ent
Ġear n
br id
Ġapp s
ĠBl ue
r ine
ĠR ock
Ġhistor ic
ĠS ection
iz ers
Ġdri ver
og ether
Ġcont ents
Ġint ric
Ġpup ils
Ġexp enses
ber ry
9 2
Ġfu els
Ġcharacter istic
Ġsod ium
ĠP rom
Ġst ores
Ġcolle agues
Ġsc r
ĠT om
ĠSt reet
ĠAtl antic
or ic
Ġdes ert
ĠVit amin
Ġflow s
Ġvers ions
y al
ot ype
ĠT ool
Ġaddition ally
Ġaddress es
Ġconsum ed
Ġsh ips
Ġw al
Ġvacc ines
Ġatt ach
ura ble
Ġmanufacture rs
, .
as ant
ri er
Ġneut ral
Ġbarri ers
Ġp in
Ġh all
ĠP ain
Ġag ent
Ġrad i
ĠL ib
Ġmotiv ation
Ġaccur ately
Ġal umin
Ġtw enty
: ||
as m
ĠRich ard
Ġqu otes
Ġinsp ired
ic ular
Ġcor ner
E E
ĠR ight
Ġaut on
Ġdirect ions
i at
ĠP oint
wh ile
Ġst ere
Ġeng ines
Ġv en
ap se
ob ile
Ġmod ified
ra v
Ġimplement ing
Ġsess ions
Ġbre ed
ĠGe org
h tt
Ġbring ing
Ġcoun sel
ĠFace book
is dom
Ġmicro sc
ĠAcad emy
g ence
ĠC ond
Ġfac ility
âĢ¢ âĢ¢
Ġep is
ĠKore a
Ġmay be
d d
ĠT ips
Ġwind ows
ĠEconom ic
Ġhorm ones
Ġst ead
our se
Ġun iform
Ġsus cept
Ġd ress
ĠI ss
Ġattempt s
es is
Ġas p
arch y
L C
Ġsc iences
Ġadv is
roduct ive
Ġfat igue
ĠW all
Ġsp elling
Ġprof ile
iv a
Ġunus ual
ud e
ĠÂ »
ĠC ode
Ġcan n
Ġsupp osed
Ġaut ism
Ġhypot hesis
re ed
Ġg ro
Ġv ote
Ġdiscipl ine
Ġbre eding
Ġremark able
end ment
Ġind eed
Ġhealth ier
ĠUnf ortunately
Ġdet ected
Ġchann el
ĠD en
Ġwell ness
Ġview ed
Ġext end
Ġdep art
Ġt ab
ĠD raw
et ime
Ġex haust
Ġwe igh
Ġdis aster
Ġmort ality
Ġcy l
b ut
Ġvar iation
Ġjo ined
Ġesc ape
R A
ĠM S
Ġclass ification
Ġshap ed
r ane
Ġsuper ior
Ġcomp rom
Ġsc ope
ap ing
wor ld
ĠFollow ing
Ġth read
Ġwhe el
Ġphr ases
ĠEx cel
ĠRet rieved
us ter
Ġpass ing
it arian
ĠP en
ĠH T
Ġdisc om
aff e
Ġcontrib uting
Ġsens itivity
Ġincorpor ate
Ġprincip al
ĠScot land
eal and
Ġcontrib uted
ĠP oly
ĠComm it
al i
com pass
ĠM el
Ġarg ue
Ġjoint s
Ġp ra
ĠVal ley
Ġnum er
4 3
ĠP enn
op her
ĠL ine
ian a
Ġsub t
Ġdestroy ed
